01000111110011111110111010110110
11001110111001011110100011111010
01011010001010110111111010010101
01010110001001010000101100101010
11010010010001000100111010110110
00100110000011111111001101011100
10101011010001011010001001011100
00010111011000100000000011111001
10111010100001100010101110000001
10000001011011101000110011010011
01011001001010011101111001100010
00010101101101100000101011010101
01000001101111110000101000111010
11111011010101110011001111110101
00100010111100100111110011011011
00010011110110000000010011011111
11111100010000110001101111111100
00001111111101000000101100000000
00101011110100110010111111101111
00001011111100100000110001101000
00111111010111001011010100001000
10110001000010110000011111110100
00110000000100111101001000010111
01010001010111110000011010010011
11010010001000110001000101001011
10100111000000000010110000001001
01111111111010011101000110000001
11010110011001010000010001001011
00100100111100011101000011010100
00110011000100011011101100000101
01001100110010101001001011010111
11011111000111000000110000000000
11001011101000100101000111111001
10100100010111110011000100101111
10000001000101000000111111100001
11101111111001000010000000110000
11011011111101111100111110111101
00111001011011101111101111100100
11100000111010111100100100001000
01111010111010100011110000001110
11100101000000010011110100000011
11010011000101010001100001110101
00010101111011001110000000010000
01000000001100011010000100100000
00100001110111010101011001111011
11101001001110100000001111101010
10010111011011000001101100110111
11000111111100110011100000001001
01001111100000011111010001100101
10101111111011010001011010111010
00101110010100101111011100010011
11001100111110000010010001011000
01010100110110110000001000001100
01100000000010110001100001010000
