01000111101100011001001011001010
10110010100110111001100010000110
01011010001010110111111011101011
01010110001001010000101100101010
10101110010001000100111011001010
00100110000011111000110101011100
11010101010001011101111001011100
00010111011000100000000010000111
11000110111110100010101111111111
11111111011011101111010010101101
01011001001010011010001001100010
00010101110010100000101010101011
01000001110000010000101000111010
10000101010101110011001110001011
00100010100011100111110010100101
00010011101010000000010010100001
10000100010000110001101110000100
00001111100011000000101100000000
00101011101011010010111110010001
00001011100011100000110001101000
00111111010111001100101100001000
11001111000010110000011110001100
00110000000100111010111000010111
01010001010111110000011011101101
10101110001000110001000101001011
11011001000000000010110000001001
01111111100101111010111111111111
10101010011001010000010001001011
00100100100011111011000010101100
00110011000100011100010100000101
01001100101101101110111010101001
10100001000111000000110000000000
10110101110111100101000110000111
11011100010111110011000100101111
11111111000101000000111110011111
10010001100111000010000000110000
10100101100010011011000111000011
00111001011011101000010110011100
10100000100101011011011100001000
01111010100101100011110000001110
10011011000000010011110100000011
10101101000101010001100001110101
00010101100101001010000000010000
01000000001100011101111100100000
00100001101000110101011001111011
10010111001110100000001110010110
11101001011011000001101100110111
10111001100011010011100000001001
01001111111111111000110001100101
11010001100100110001011011000110
00101110010100101000100100010011
10110100100010000010010001011000
01010100101001010000001000001100
01100000000010110001100001010000
