00000000000000001111110100000000
11111101111111100000000000000000
00000001000000000000000100001001
00000000000000000000000111111110
00000001000000001111110000000000
00000000111111111111111100000010
11111000111111010000001111111111
11111010000000010000011100000010
00000000000000000000000111111111
00000000111111110000010100000010
00000000111110101111100100000100
00000011111111100000000011111110
11111110000000000000000000000000
11111110111111000000000000000001
00000010000000000000000000000001
00000000000000000000000000000001
00000110111111110000000011111111
11111011000000000000000000000000
11111111111111000000010000001101
11111110000000000000001000000000
00000100000000000000010100000000
00000000000000000000000011111110
00000100000000000000001000000000
00000000000000000000000100000001
11111110000001000000000000010000
00000000000000000000001111111100
00000000000001010000100011111010
00000010111110110000000011111111
00000000111111110000000000000011
00000000000000100000111000000000
11111111111111011111110100000000
11111110000000000000100011111101
00000100000100001111110100000000
00000000111110100000010100000000
00000000000000001111111111111111
00000000000000110000000000000000
00000000111111100000000000000000
00000000000000111111110111111111
00000011000000000000001000000000
00000000000000000000101111111101
00000011000000001111101100000000
00000000000000000000001000000100
00000010111110011111100000000011
00000000000000000000010000000000
00000000000000001111111100001001
00000000111110110000000000000001
00000000000001100000010000000000
00000000111111000000000011111011
00000001111111010000000000000000
00000000000000000000010000000000
11111110000000000000000000000001
00000110000000000000000000000001
00000000000001000000000000000011
11111010111111100000000000000110
00000000000000000000000000000000
00000000000000100000000100000001
00000000000000000000001000000100
00000000000101010000001100000000
00000001000001000000000000000000
00000001111111110001000000000000
00000000000000000000000000000000
00000000000010000000000000000000
11111111000000001111110100000000
00000001000000000000100000001011
00001000111111001111111100000000
11111111000000000000000000000000
00000000111111000000001000000100
00000000000000001111111100000101
00000001000000000000001000000000
00000000111111110000000000000010
11111110111111000000000000000101
11111010000001000000001000000010
11111110000001000000001000000000
11111100000000011111111111111011
00000000111111001111101011111101
11111111111111100000000000000100
00000000000000000000000000000010
11111110111111110000000000000000
11111101000000000000000000000001
11111111000000000000001000000001
00000000000000000000000000000100
00000010000000000000001100001001
00000100000000001111111000000101
11111100000000000000000000000001
00000100000000000000000000000000
00000000000000000000000000000010
11111111000000001111110100000000
00000000000000000000110000000000
00000001000000000000000000000011
00000000000001111111111100000000
00000000000010000000011111111001
00000000111111000000000000000000
00000000000000110000000100000110
00000000000000000000010000000000
11111011111110111111101100000000
11111110000000010000011000000000
00001000000001011111101100000000
11111111000000010000010100000001
00000000000000000000000000000000
00000100000000000000000000000000
00001001000000000000000100000000
00000000000001010000010000000001
00000101111111110000010100000000
00000000111111110000001000000111
00000000000000000000000000000000
00000000000010100000000011111011
11111111000000011111110100000010
00000000000000001111111000000000
00000000000000100000000000000100
00000000000000000000000000000000
00000000000000001111100100000000
00000000000000111111110011111000
11111101000000100000000000000000
00000000000000000000100000000000
00000110000000000000000000000000
00000011000000000000000011111111
00000010000001110000000000000000
11111101000010010000010000000000
00000000000001000000000000000010
00000100000000000000000011111100
00000000000000001111111000000011
00000000000001000000000100000000
00000011000000010000000000000000
11111111111111110000100100000000
00000000000000001111111111111111
00000000000000110000000000000000
00001010000000000000000100000000
00000011000000010000000100000100
00000001000000000000100000000000
00000001000000000000000000000000
00000000000000000000000100000000
00000000000000000000000011111100
00000000000000001111101100000000
00000000000001010000000111111111
00011100000001110000000000000000
00000001000001110000010100000001
11111101000000000000000000000001
00001011000000001111111100000000
00000001111111110000000000000100
00000000000000000000000011111111
00000100111111101111111111111101
11111111000011110000000000000000
00000000000000000000000011111111
00000000000000000000000000000000
11111110000000010000000011111011
00000010000000000000101011111001
00000001111111000000011111111100
00000100000000000000000100000010
11111101000000001111111100000000
00000000000000000000000011111111
00000010000000000000110100000000
00000000000000001111100111111110
11111110000000000000000011111101
00000000111111101111110100010001
00000000000000111111111000000000
00000010000000000000011011111111
00000000111111110000000011111101
00000000111111100000011000000000
00000000000000010000011100000000
00001000000000000000000000000001
11111110111111010000000000000000
00000001111111001111111100000111
00000000000000001111111100000000
00000001000000000000000000000000
00000010000000000000000100000000
00000000000000111111111100000011
00000000000000000000000000000000
00000000000000001111110111111011
00000000000000000000000000000000
00000000111111000000000000000000
00000000000001010000011111111110
00000000000000001111111100000011
00000000000000000000000011111011
11111110000000000000000000000000
00000000111111100000000000000000
00000000111111110000000000000000
00000000111111110000000000000000
00000000000000001111110100000000
00000000111111110000000111111111
11111110000000000000000000000000
11111110111111010000000000000010
11111111000000101111111011111110
00000000111111110000000000000000
00000000000000001111111100000000
00000000000000010000000000000000
00000000111111000000110000000000
11111111000001010000000011111110
00000001111111100000000000000000
00000000000000000000000000000000
00000000000000010000000000000000
00000110000000000000011000000010
11111110000000000000000011111111
00000000000000000000000000000000
00000000000000000000000000000000
00000000000000000000000000000000
00000000000000000000000000000000
00000000000000000000000000000000
00000000000000000000000000000000
00000000000000000000000000000000
00000000000000000000000000000000
00000000000000000000000000000000
00000000000000000000000000000000
00000000000000000000000000000000
00000000000000000000000000000000
00000000000000000000000000000000
00000000000000000000000000000000
00000000000000000000000000000000
00000000000000000000000000000000
00000000000000000000000000000000
00000000000000000000000000000000
00000000000000000000000000000000
00000000000000000000000000000000
00000000000000000000000000000000
00000000000000000000000000000000
00000000000000000000000000000000
00000000000000000000000000000000
00000000000000000000000000000000
00000000000000000000000000000000
00000000000000000000000000000000
00000000000000000000000000000000
00000000000000000000000000000000
00000000000000000000000000000000
00000000000000000000000000000000
00000000000000000000000000000000
00000000000000000000000000000000
00000000000000000000000000000000
00000000000000000000000000000000
00000000000000000000000000000000
00000000000000000000000000000000
00000000000000000000000000000000
00000000000000000000000000000000
00000000000000000000000000000000
00000000000000000000000000000000
00000000000000000000000000000000
00000000000000000000000000000000
00000000000000000000000000000000
00000000000000000000000000000000
00000000000000000000000000000000
00000000000000000000000000000000
00000000000000000000000000000000
00000000000000000000000000000000
00000000000000000000000000000000
00000000000000000000000000000000
00000000000000000000000000000000
00000000000000000000000000000000
00000000000000000000000000000000
00000000000000000000000000000000
00000000000000000000000000000000
00000000000000000000000000000000
00000000000000000000000000000000
00000000000000000000000000000000
00000000000000000000000000000000
00000000000000000000000000000000
00000000000000000000000000000000
00000000000000000000000000000000
00000000000000000000000000000000
00010001111111111111110100000000
11111110000000010000000000000000
11111111111111101111110100001111
00000000000000000000000000000010
00000000111111101111100000000000
00000011000000001111101100000000
11111110111111110000000100000111
00000100000011000000001011111011
00000000000001101111110000000000
00000101000000010000000100000001
00000001111111101111100000000001
00000100111111000000000000001111
00000110111110111111111011111110
00001000111111110000000000000100
00000100000000000000000000000000
00000000000000100000010000000100
00000000111111000000000000000000
11111110000000000000000111111111
00001001000001011111111000000101
00000000000000000000010100000001
00000011000000000000011100000000
00000000000000110000000000000001
11111010000000001111111000000000
00000000000000000000010011111101
00000001000000010000000000000110
00000000000001111111111111111110
00000000111110101111111011110110
00000001111111011111111100000000
00000000000000010000000000000000
00000011000000011111111100000000
00000000000000000000000100000000
11111110000000001111101000000011
00000001000000100000001000000000
00000100111110000000001000001110
00000000000000000000010000000000
11111101000000000000000000000000
00000100000000110000001100000010
00000000000010100000000011111100
00000011000000110000000000000000
00000000111111110000011111111000
00000001000000000000001100000000
00000000111111101111101000000011
00000011000000110000001100000001
00000000000000001111111100000000
00000000000010010000001000000111
00000001000000110000000000000000
00000000000001000000000100000000
00000000000001000000000000000010
00000000111111100000000000000000
00000000000000000000000000000000
00001010000000101111111100000000
00000011000000000000000000000010
00000001000001000000000000000000
11111111111111000000010000000000
00000000000000010000000000000011
00000001000000010000000000000001
00000000000001110000000100001000
00000000000001001111101100000000
00000111111111010000000011111111
00000000000001000000001000000100
00000000000000000000000000000010
00000000000000110000000000000000
11111110000000000000000000000010
11111100111111100000000000000000
00000111000001100000001100000000
11111111000000000000000000000000
00000000000001001111111100001010
00000000000000000000000000000000
00000000000000001111101100000000
00000111111111011111111100000001
11111001000000110000001100000000
00000011000010110000001011111111
00000010000000101111110011111111
00000011111111110000010100000011
00000000000000110000100000000000
00001000000000010000000000000111
00000101000001100000001100000010
00000111111111000000000000000100
11111110000000000000000011111111
00000000000000010000000000000010
00000001111111110000000000000011
11111101000000001111111000000010
00000010000000100000001000010001
00000000000000000000000100000000
00000101000000000000000000000000
00000000000000100000000011111111
11111101000000000000001000000000
00000000000000000000000000000000
11111111000001100000000000010011
00000000000000011111111100000000
00000000111110110000000000001001
00000011000000001111110011111110
00000000111111111111111111111110
00000011000011010000011100000000
00000010000000010000001000000000
11111110000000001111110111111111
00000010000010100000000000000000
00000001111110010000010100000110
00000000000000000000000111111111
00000010000000000000000100000000
11111111000000010000000000000000
00000000000001001111110111111011
00000001000000000000000000000000
00000000000000100000100011111010
11111111000000000000001100000000
00000000111110100000000011111000
00000010111111011111101000000001
00000000000000000000011011111110
00000000000000000000000000001001
11111010111111100000000000000000
00000000000001110000000000000000
00000000000000000000001000000000
00000100111110100000000000000000
00000000000000001111111100000000
00000000000000010000000000000010
00000110000000010000000000000011
00000000000010010000000111111100
00000000111110110000010000000111
00000000111111110000000000000000
00000000111111000000001100000000
00000000000000111111011000000111
00000000000100001111111100000000
00000110000001000000000000000001
00000001111111100000101100000011
00000000000000000000000000000010
00000000000001100000001000000000
11111011000000001111111011111010
11111101000000000000011000000000
00000100000000110000010100000000
00000100000001110000000000000000
00000000111111100000001000000000
00000000000000000000000011111110
11111110111111110000000000000000
00001100111111010000000111111110
00000000111110011111111100001101
00000001000001111111011011111100
11111011000000000000001100000010
11111110000000101111111011111101
00000000000000011111111011111100
11111101000000000000000011111110
00000101111111101111111111111100
00000011000001000000000000000010
00000000000000000000000000000110
00000000000000000000111100000000
00000101111111100000000000000000
00000000000000001111111000000100
00000000000000000000010011111100
11111101000000001111111000000011
11111100000000000000000000000000
00000000000000000000000000000101
11111011000000001111110000000000
00000000000000000000011100000000
00001001111111110000000011111101
00000000000001000000000100000111
00000000111110000000001111111100
00000000111111010000000000000000
00000000000001000000000100000000
00000011111111101111100000000000
11111110000000001111111100000000
00000000000000001111101000011001
11111111000000100000000100000000
00000000000001001111110000000100
00000000000000000000001000000100
11111110000000000000000000000000
00000010000000100000001100001101
00000000111111000001001000000110
00000000000000001111011000000000
00000000111111110000100111111101
00000100000000000000011000000000
00000000000000111111111100000000
00000000000010000000000000000010
00000010000000001111111000000000
00000000000001010000110000001011
00000101000011100000000000000001
00000000000000001111110100000000
00000000000100001111111011111111
11111111111101100000000000000000
00000000000000000000001000000000
00100100000000100000000000000011
00000000000000000000000000000011
11111111111011110000000000000000
00000111111110010000011011111110
00000000000011010000000011111111
11111110000000100000000111111111
00000010000000000000000000000110
00000000111111101111110000000000
00001010000000100000000011111111
00000000000000001111110100000100
00000000000000000000000011111111
00000000000010110000000000000000
11111000000000000000000000010000
00000011000000001111110100001000
00000000000000000000000000000000
00000000000000000000000000000000
00000000000000000000000000000000
00000000000000000000000000000000
00000000000000000000000000000000
00000000000000000000000000000000
00000000000000000000000000000000
00000000000000000000000000000000
00000000000000000000000000000000
00000000000000000000000000000000
00000000000000000000000000000000
00000000000000000000000000000000
00000000000000000000000000000000
00000000000000000000000000000000
00000000000000000000000000000000
00000000000000000000000000000000
00000000000000000000000000000000
00000000000000000000000000000000
00000000000000000000000000000000
00000000000000000000000000000000
00000000000000000000000000000000
00000000000000000000000000000000
00000000000000000000000000000000
00000000000000000000000000000000
00000000000000000000000000000000
00000000000000000000000000000000
00000000000000000000000000000000
00000000000000000000000000000000
00000000000000000000000000000000
00000000000000000000000000000000
00000000000000000000000000000000
00000000000000000000000000000000
00000000000000000000000000000000
00000000000000000000000000000000
00000000000000000000000000000000
00000000000000000000000000000000
00000000000000000000000000000000
00000000000000000000000000000000
00000000000000000000000000000000
00000000000000000000000000000000
00000000000000000000000000000000
00000000000000000000000000000000
00000000000000000000000000000000
00000000000000000000000000000000
00000000000000000000000000000000
00000000000000000000000000000000
00000000000000000000000000000000
00000000000000000000000000000000
00000000000000000000000000000000
00000000000000000000000000000000
00000000000000000000000000000000
00000000000000000000000000000000
00000000000000000000000000000000
00000000000000000000000000000000
00000000000000000000000000000000
00000000000000000000000000000000
00000000000000000000000000000000
00000000000000000000000000000000
00000000000000000000000000000000
00000000000000000000000000000000
00000000000000000000000000000000
00000000000000000000000000000000
00000000000000000000000000000000
00000000000000000000000000000000
00000011111111110000100000000000
00000100000000000000000000000000
00000000111111100000010011111011
00000000000000000000000000000001
00000000000000010000001100000000
11111111000000011111111100000000
00000011000000000000000000000001
00000101000000100000000000000000
00000010000000000000011100000001
11111110000000000000000000000000
00000000111111101111100000000100
00000000000000000000000011111000
00000010111111101111111011111110
00000010000001000000000000000001
00000001000000000000000000000011
00000000111111110000001011111111
00000000000000000000000000000100
00000100000000000000000000000000
11111001000000000000001100000000
00000000000000001111111100000011
00000000000000001111111100000000
00000000111111110000000000000000
00000110000000000000001100000000
00000000000000000000000000000011
00000001000000000000000000000000
00000000111111000000000100000110
00000000111110110000010011111000
11111111000000000000000000000011
00000000000000000000000111111101
11111101111111000000001100000000
00000000000001000000001100000000
00000001000000001111101000000101
00000000000000110000000100000000
11111111000001110000000111111101
00000000000000000000001100000010
00000010000000001111111100000000
00000001111111110000000000000010
00000000111110010000011000000101
00000000000000000000000000000000
00000000111111100000001100000001
00000001000000001111110100000000
00000000000001000000000100000001
00000010000001000000001100000010
00000000000000001111111000000001
00000000000000000000001000000100
00000101000000100000000000000000
00000000000000000000000100000000
00000000111111110000000000000011
11111111111111110000000000000000
00000000000000000000000000000000
00000100000000000000000000000000
00000001000000000000000000000001
00000010111111100000000000000010
00000011000000000000000100000000
00000000000000100000000011111111
11111101000000001111111100000000
00000000111111010000010000000001
00000000000000010000000000000000
11111111000001100000000000000000
00000000000000110000010100000000
00000000000000000000000000000000
00000000000000101111111100000000
11111110000000000000000000000100
00000010000000100000000000000000
00000000000000000000000000000000
00000000000000000000000000000000
00000000000000010000000000000000
00000000000000000000000000000000
00000000000000000000000000000000
00000000000000000000000000000000
11111111000000000000000000000000
00000000000000000000000000000000
00000000000000000000000000000000
00000000000000000000000000000000
00000000000000010000001000000000
00000000000000000000000000000000
00000000000000010000000000000000
00000000000000000000000000000000
00000000000000000000000000000000
00000000000000000000000000000000
00000000000000000000000000000000
00000000000000000000000000000000
00000000000000000000000000000000
00000000000000000000000000000000
00000000000000000000000000000000
00000000000000000000000000000000
00000000000000000000000000000000
00000000000000000000000000000000
00000000000000000000000000000000
00000000000000000000000000000000
00000000000000000000000000000010
00000000000000000000000000000000
00000000000000000000000000000000
00000000000000010000000000000000
00000000000000000000000000000000
00000000000000000000000000000000
00000000000000000000000000000000
00000000000000000000000000000000
00000000000000000000000000000000
00000000000000000000000000000000
00000000000000000000000000000000
00000000000000000000000000000000
00000000000000000000000000000000
00000000000000000000000000000000
00000000000000000000000100000000
00000000000000000000000000000000
00000000000000000000000000000000
00000000000000000000000000000000
00000000000000000000000000000000
00000000000000000000000000000000
00000000000000000000000000000000
00000000000000000000000000000000
00000000000000000000000000000000
00000000000000000000000000000000
11111111000000000000000000000000
00000000000000000000000000000000
00000000000000010000000000000000
00000000000000000000000000000000
00000000000000000000000000000000
00000000000000000000000000000000
00000000000000000000000000000000
00000000000000000000000000000000
00000000000000000000000000000000
00000000000000000000000000000000
00000000000000000000000000000000
00000000000000000000000000000000
00000000000000000000000000000000
00000000000000000000000000000000
11111101000000000000000000000000
00000010000000000000000000000000
00000000111111100000000100000000
00000000000000000000000000000010
00000001000000010000001000000000
00000000000000010000000000000001
11110101111111010000000000000000
00000001111111010000000000000001
00000010111111110000011100000000
11111011000000000000000100000001
00000000111111001111011000000010
11111111000000000000000011111011
11111111111111101111111100000001
00000000111111000000000000000001
00000001000000000000000000000100
00000000000000000000001000000000
00000100000000010000000000000011
00000000000000001111110100000100
11111100000000000000001100000010
00000000000000000000000000000000
00000001000000000000001100000000
00000000000000000000000000000000
00001000000000001111110100000000
00000000000000000000010100000100
00000010000000010000000000000011
00000000000000010000001111111011
00000000000000100000011111110110
00000000000000010000000000000010
00000000000000010000000000000100
11111111111111000000001000000000
00000000000000101111111000000000
11111111000000000000011100000100
00000010000001110000000100000000
11111111000001000000000011111101
00000000000000000000001100000001
11111111000000011111111100000000
00000000111111100000000000000010
00000000111111100000011000000011
00000010000000000000000100000000
00000000111111100000011000000011
00000101000000001111110100000000
00000000000001010000010100000011
00000010111111111111111000000010
00000000000000001111111100000000
00000000000000000000001000000101
00000100000000010000000000000001
00000000000000100000001000000000
00000000000000010000000000000000
00000000000000100000000000000000
00000000000000000000100000000000
00000110000000010000000000000001
00000000000000000000000000000001
00000001000000000000000000000010
00000001111111110000000100000000
00000000000001000000000011111111
11111111000000110000001000000000
00000000111111110000001100000000
00000000000001011111111100000000
00000000000000000000000000000001
00000000000000100000011000000000
00000000000000000000000000000000
00000000000000111111111100000000
11111110000000001111111000000101
00000110000000110000000100001000
00000000000001110000000000000001
00000000000000110000000000000000
00000001000010010000001000000010
00000000000000000000000011111111
00000000111111110000000000000000
00000101000000000000100000000000
11111111000000101111111111111111
11111101000000001111111000000011
11111111000000001111111100000001
00000100000000001111111100000000
00000000000011100001100111111110
00000100000001010000000000000000
00000000000001110000010100000010
00000000000000000000000011111111
00000000000000000000000000000000
00000000000000000000000000000000
00000001000000000000000000000001
11111111000000000000000000000010
00000000000001000000000011111101
00000001000000000000000100000000
00000000000000000000000100000000
00000000000000010000000000000000
11111011000000001111111100000000
00000000000000001111111011111110
00000000111111110000000011111010
00000000111111110000001000000101
00000000111111100000000000011001
00000001000000110000000000000000
00000000000000000000000011111111
00000100000011001111110100000000
00000010111111100000000000000000
00000001000000001111111000000000
00000001111110110000000000000000
00000011111111110000001000000000
00000000000000001111111100000000
00000011000000000000001000000000
00000000000001100000000000000000
00000000000000001111111111111110
00000000000000001111111100000000
00000000000001001111110011111111
00000000000000000000101000000000
00000000111111110000001000000000
11111111111111101111111000000000
00000000000000000000010100000000
00000000000000000000000000000010
11111111000001000000000000000000
00000000000000010000000100000001
00000000000000110000000100000000
00000100111111100000000000000000
00000000000000001111111100000000
11111111000001000000001000000000
00000011000000000000000000000000
00000000000001100000000011111111
00000100111111101111111100000001
00000000000000000000000000000000
11111111000000000000011000000011
00000000000000001111111100000000
00000000111110100000000000000000
00000001000000000000000000000000
00000001000000001111101000000010
00000000000000000000000100000001
00000000000000000000001000000000
11111110000000001111111111111111
11111111111111100000000011111111
00000000000000000000000000000000
00000000000000000000000000000000
00000000000000000000000000000000
00000000000000000000000000000000
00000000000000000000000000000000
00000000000000000000000000000000
00000000000000000000000000000000
00000000000000000000000000000000
00000000000000000000000000000000
00000000000000000000000000000000
00000000000000000000000000000000
00000000000000000000000000000000
00000000000000000000000000000000
00000000000000000000000000000000
00000000000000000000000000000000
00000000000000000000000000000000
00000000000000000000000000000000
00000000000000000000000000000000
00000000000000000000000000000000
00000000000000000000000000000000
00000000000000000000000000000000
00000000000000000000000000000000
00000000000000000000000000000000
00000000000000000000000000000000
00000000000000000000000000000000
00000000000000000000000000000000
00000000000000000000000000000000
00000000000000000000000000000000
00000000000000000000000000000000
00000000000000000000000000000000
00000000000000000000000000000000
00000000000000000000000000000000
00000000000000000000000000000000
00000000000000000000000000000000
00000000000000000000000000000000
00000000000000000000000000000000
00000000000000000000000000000000
00000000000000000000000000000000
00000000000000000000000000000000
00000000000000000000000000000000
00000000000000000000000000000000
00000000000000000000000000000000
00000000000000000000000000000000
00000000000000000000000000000000
00000000000000000000000000000000
00000000000000000000000000000000
00000000000000000000000000000000
00000000000000000000000000000000
00000000000000000000000000000000
00000000000000000000000000000000
00000000000000000000000000000000
00000000000000000000000000000000
00000000000000000000000000000000
00000000000000000000000000000000
00000000000000000000000000000000
00000000000000000000000000000000
00000000000000000000000000000000
00000000000000000000000000000000
00000000000000000000000000000000
00000000000000000000000000000000
00000000000000000000000000000000
00000000000000000000000000000000
00000000000000000000000000000000
00000000000000000000000000000000
00000000000000000000000000000000
00000000000000000000000000000000
00000000000000000000000000000000
00000000000000000000000000000000
00000000000000000000000000000000
00000000000000000000000000000000
00000000000000000000000000000000
00000000000000000000000000000000
00000000000000000000000000000000
00000000000000000000000000000000
00000000000000000000000000000000
00000000000000000000000000000000
00000000000000000000000000000000
00000000000000000000000000000000
00000000000000000000000000000000
00000000000000000000000000000000
00000000000000000000000000000000
00000000000000000000000000000000
00000000000000000000000000000000
00000000000000000000000000000000
00000000000000000000000000000000
00000000000000000000000000000000
00000000000000000000000000000000
00000000000000000000000000000000
00000000000000000000000000000000
00000000000000000000000000000000
00000000000000000000000000000000
00000000000000000000000000000000
00000000000000000000000000000000
00000000000000000000000000000000
00000000000000000000000000000000
00000000000000000000000000000000
00000000000000000000000000000000
00000000000000000000000000000000
00000000000000000000000000000000
00000000000000000000000000000000
00000000000000000000000000000000
00000000000000000000000000000000
00000000000000000000000000000000
00000000000000000000000000000000
00000000000000000000000000000000
00000000000000000000000000000000
00000000000000000000000000000000
00000000000000000000000000000000
00000000000000000000000000000000
00000000000000000000000000000000
00000000000000000000000000000000
00000000000000000000000000000000
00000000000000000000000000000000
00000000000000000000000000000000
00000000000000000000000000000000
00000000000000000000000000000000
00000000000000000000000000000000
00000000000000000000000000000000
00000000000000000000000000000000
00000000000000000000000000000000
00000000000000000000000000000000
00000000000000000000000000000000
00000000000000000000000000000000
00000000000000000000000000000000
00000000000000000000000000000000
00000000000000000000000000000000
00000000000000000000000000000000
00000000000000000000000000000000
00000010000000000000000000000000
00000000000000000000000000000000
00000000000000000000000000000001
00000000000000000000000000000000
00000000000000001111111100000000
00000000000000000000000000000000
00000010000000000000000000000001
00000001000000100000000000000000
00000000000000010000000000000000
00000001000000000000000000000000
00000000000000001111111100000000
00000000000000000000000000000001
00000001111111110000000000000000
00000001000000010000000000000000
00000000000000000000000000000000
00000000000000000000000000000000
00000000000000000000000000000000
00000000000000000000000111111111
00000000000000000000000000000000
00000000000000000000000000000000
00000000000000000000000000000000
00000000000000000000000000000000
00000000000000000000000100000000
00000000000000000000000000000000
00000000000000000000000000000000
00000000000000000000000000000001
00000000111111110000000011111111
00000000000000000000000000000000
00000000000000000000000000000000
00000000000000000000000000000000
00000000000000000000000100000000
00000000000000001111111100000001
00000000000000000000000000000000
00000000111111110000000000000010
00000000000000000000000000000000
00000000000000000000000000000000
00000000000000000000000000000000
00000000000000010000000000000000
00000000000000000000000000000000
00000000000000000000000011111110
00000000000000000000000000000000
00000000000000001111111100000000
00000000000000010000000100000000
00000000000000000000000000000000
00000000000000010000000000000000
00000000000000000000000000000000
00000000000000000000000000000000
00000000000000000000000000000000
00000000000000000000000000000000
00000000000000000000000000000000
00000001000000000000000000000000
00000000000000000000000000000000
00000000000000000000000000000000
00000000000000000000000000000000
00000000000000000000000000000000
00000000000000000000000000000000
00000000000000000000000000000001
00000000000000000000000000000000
00000000000000000000000000000000
00000000000000000000000000000000
00000000000000000000000000000000
00000000000000000000000000000000
00000000000000000000000000000000
00000000000000000000000000000000
00000000000000000000000000000000
00000000000000000000000000000000
00000000000000000000000000000000
00000000000000000000000000000000
00000000000000000000000000000000
00000000000000000000000000000000
00000000000000000000000000000000
00000000000000000000000000000000
00000000000000000000000000000000
00000000000000000000000000000000
00000000000000000000000000000000
00000000000000000000000000000000
00000000000000000000000000000000
00000000000000000000000000000000
00000000000000000000000000000000
00000000000000000000000000000000
00000000000000000000000000000000
00000000000000000000000000000000
00000000000000000000000000000000
00000000000000000000000000000000
00000000000000000000000000000000
00000000000000000000000000000000
00000000000000000000000000000000
00000000000000000000000000000000
00000000000000000000000000000000
00000000000000000000000000000000
00000000000000000000000000000000
00000000000000000000000000000000
00000000000000000000000000000000
00000000000000000000000000000000
00000000000000000000000000000000
00000000000000000000000000000000
00000000000000000000000000000000
00000000000000000000000000000000
00000000000000000000000000000000
00000000000000000000000000000000
00000000000000000000000000000000
00000000000000000000000000000000
00000000000000000000000000000000
00000000000000000000000000000000
00000000000000000000000000000000
00000000000000000000000000000000
00000000000000000000000000000000
00000000000000000000000000000000
00000000000000000000000000000000
00000000000000000000000000000000
00000000000000000000000000000000
00000000000000000000000000000000
00000000000000000000000000000000
00000000000000000000000000000000
00000000000000000000000000000000
00000000000000000000000000000000
00000000000000000000000000000000
00000000000000000000000000000000
00000000000000000000000000000000
00000000000000000000000000000000
00000000000000000000000000000000
00000000000000000000000000000000
00000000000000000000000000000000
00000000000000000000000000000000
00000000000000000000000000000000
00000000000000000000000000000000
00000000000000000000000000000000
00000000000000000000000000000000
00000001000000010000100100000000
00000011000000000000000000000000
00000000000000000000011011111001
00000000000000000000000000000010
00000000000000000000010000000000
00000000000000100000010000000001
00000011000000001111111100000000
00000010000000001111101100000011
00000000000000000000011100000001
11111110000000001111110111111110
00000000000001100000100000000000
00000000000001000000000011110110
00000001000000100000000000000000
00000001000001010000000000000000
11111110000000000000000000000010
00000000111111110000000111111111
11111111000000010000000000000110
00000110000000000000000100000011
11111000000000100000001011111100
00000000000000001111110100000010
00000000000000001111110100000000
00000000111111110000000000000000
00000010000000000000000100000000
00000000000000000000000000000001
00000000111111110000000011111010
00000000111110111111111100001010
00000000111111110000010000001000
00000000000000100000000000000011
00000000000000000000000111111111
11111111000000110000000000000000
00000000000000010000001000000000
00000011000000001111111100000100
00000010111111010000000000000000
00000000000001110000001111111010
00000000000000000000001100000010
00000101000000000000000000000000
00000010000000001111111100000001
00000000111110010000011000000100
00000000111111110000001000000000
00000000000000001111110000000011
00000000000000000000000100000000
00000000000001000000001111111011
00000000000000110000000100000000
00000000000000000000000000000001
00000000111111010000000100000010
00000001000000010000000000000000
00000000000000001111110000000000
00000000000000000000000000000001
00000000111111110000000000000000
00000000000000000000001100000000
00000011000000100000000100000000
00000001000000000000000000000000
00000010000000010000000000000000
00000100000000011111111111111111
00000000000000110000000011111111
11111101111111110000001111111111
00000000111111001111111000000000
00000000111110100000001000000000
11111110000001000000000000000000
00000000000000010000000000000000
00000000000000000000000000000000
00000000000000000000000000000000
00000000000000000000000000000000
00000011000000001111111111111111
00000000000000100000000000000001
11111111000000000000000000000000
00000010111111111111110100001011
00000000000000000000000011111111
00000000111111101111011000000000
00000001000011010000010100000011
00001010000000100000000000000001
00000110000000101111110000000000
11111010111111100000000100000000
00000100000000001111111100000000
00000000000000000000000100000001
00000000000001010000000000000011
00000011111111011111111000000011
00000001000001110000000000000000
11111110000000000000000000000000
00000000000000110000010000000010
11111111000000100000000011111010
00000000000000000000101011111101
00001000111110100000101111111101
00001010000000000000000011111101
11111101000000000000010000000000
00000000000000100000000111111111
00000001000000000000011000000000
00000000000000000000000111111010
11111101000001010000000000000000
00000000000010001111011100000110
00000000000101000000000000000000
00000100000010100000011011111110
00000000000000001111111100001011
00000101000000000000010000000000
00000001000000110000011000000000
00000111000000000001101000000011
00000000111110110000001100000000
00000001111101100000000000000111
00000000000000000000001111111111
11111001000000100000000000000000
00000000000000000000010000000010
00000000000011010000000100000000
00001000000000000000101000000000
00000000000000001111110111111010
00000111000000000000000000000000
00000000111110100000010111111100
00000001000000110000000111111100
00000000000000001111111000000000
00000000000000000000001011111110
11111010111111010000000000000000
00000000000001001111110100000000
00000000000001100000000000000011
00000000000001000000000000000000
00000000000000000000111100000000
00001001000000010000000011111110
11111110000000000000000000000000
11111101111111010000000000000000
11111101000000001111110111111110
00000000000000110000000000000000
00000100000000010000100111111111
00000000000001001111011100000000
00000000111111000000110100000001
00000001111101100000000011111110
00000000111111011111110000000000
00000000000000000000000000000000
00000000000001100000001000000000
00000110000000000000001000000011
00000011000000010000001100001000
00001000111111011111110000000001
11111100111111100000000000000000
00000000111111111111111100001011
00000000000000000000000000000101
00000001111111111111101100000000
11111100000010010000000000000010
00000100000000010000000000000000
00000001000000010000001100000001
11111111000000110000000000000000
00000101000000000000000000000000
00000001111111101111110100000100
00000010000000000000000000001010
00000001111111001111111000000010
00000001000000010000000000000000
00000011000000000000000011111110
00000000000000011111110000000010
11111101000000000000000000000000
00000010000000000000100111111110
00001001000000100000000011111110
00000110000000000000010000000000
00000010000000000000100000000000
00000000000000010000000011111111
00000000000000000000001000000000
00000000000000000000001111111101
11111100000000000000000011111101
00000000000001101111110100000000
00000000000011000000000011111100
00000001000000110000010000000000
00000000000000000000000000000101
00000001111111110000001000000000
00000000000000000000001000000000
00000010000000000000101111111000
00000011111110100000000100000000
00000011111110010000010000000110
00000000000000000000001011111110
11111110000000000000000000000000
00000101000000010000000111111100
00000000000011011111101011111110
00000110000000100000110000000000
00000000000000001111101100000000
00000010000000000000000000000000
00000000000000000000000000000011
00000010000000010000011111111111
11111111000000001111111000000000
00000000000000111111110011111101
00000000111111010000000000000000
00000000000000010000000100000000
00000000111111010000000000000010
11111111000010110000000000000001
00000000000000000000011100000000
11110111000000010000000011111110
00000001000000000000000011111111
00000001000011000000000000000010
11111011000001111111111011111110
00000000111111010000000000000011
00000101000000110000001000000001
00000000000001000000001000000000
00000000111110100000010000000000
11111110111110000000000011111111
00000000000000111111111000000000
00000000000000000000000000000010
00000000111111010000000000000000
00001010000000000000000111111101
00000000111111110000000000000000
00001010111111010000001000000000
00000000000000000000000000000000
00000000111111100000000000000110
00000000000000000000000011111111
00000000000000001111101100000000
00000000000000001111110111111110
00010100000001110000000000000010
11111111000011000000110100000000
00000000000001011111110000000000
00001110000000010000000100000001
00000010111111001111101000000101
00000001111111000000000000001011
00000101111111101111111011111110
00000000000010010000000000000000
00000010000000000000000011111110
00000000000000001111111000000010
11111111000000000000000011111101
00000000000000000000100011111100
00001000000000000000000100000001
00000001000000000000010100000011
00000001000000000000000100000000
00000000000000010000000000000000
00000000000000000000100100000000
00000000000000001111110111111111
00000000000000000000000000000011
00000000000000010000000000001001
00000000111111101111110111111001
00000001111111010000001111111111
00000000111111110000000011111100
00000001111111010000010100000000
00000000000000000000010100000000
00000011000000001111100011111110
11111111000000000000000000000000
00000010111110010000000000001111
00000000000000001111111000000000
00000001000000000000000000000000
00000100000000010000001011111111
00000000000010001111101100000000
11111110000000011111111100000000
00000000000000000000000111111011
11111111000000000000000000000000
00000000111111011111101100000100
00000000000001000000100000000000
00000000000000001111111100000010
00000000000001011111111111111110
00000000000000000000000000000000
00000000111111110000000100000000
00000000111111110000000011111111
11111111000000000000000000000000
00000000000000001111011100000000
11111101111111100000000000000000
00000000000000000000000000000000
11111111000001010000000000000001
11111101000000110000001000000000
00000000111111010000000000000011
00000011000000001111101100000000
00000000000001010000010000000010
00000000000000010000010000000000
00000001000001010000000011111111
00000001000000000000001100000000
00000000000000000000000000000000
00000000000000000000000000000000
00000110000000000000011000000000
11111010000000000000000011111101
00000000000000000000000000000000
00000000000000000000000000000000
00000000000000000000000000000000
00000000000000000000000000000000
00000000000000000000000000000000
00000000000000000000000000000000
00000000000000000000000000000000
00000000000000000000000000000000
00000000000000000000000000000000
00000000000000000000000000000000
00000000000000000000000000000000
00000000000000000000000000000000
00000000000000000000000000000000
00000000000000000000000000000000
00000000000000000000000000000000
00000000000000000000000000000000
00000000000000000000000000000000
00000000000000000000000000000000
00000000000000000000000000000000
00000000000000000000000000000000
00000000000000000000000000000000
00000000000000000000000000000000
00000000000000000000000000000000
00000000000000000000000000000000
00000000000000000000000000000000
00000000000000000000000000000000
00000000000000000000000000000000
00000000000000000000000000000000
00000000000000000000000000000000
00000000000000000000000000000000
00000000000000000000000000000000
00000000000000000000000000000000
00000000000000000000000000000000
00000000000000000000000000000000
00000000000000000000000000000000
00000000000000000000000000000000
00000000000000000000000000000000
00000000000000000000000000000000
00000000000000000000000000000000
00000000000000000000000000000000
00000000000000000000000000000000
00000000000000000000000000000000
00000000000000000000000000000000
00000000000000000000000000000000
00000000000000000000000000000000
00000000000000000000000000000000
00000000000000000000000000000000
00000000000000000000000000000000
00000000000000000000000000000000
00000000000000000000000000000000
00000000000000000000000000000000
00000000000000000000000000000000
00000000000000000000000000000000
00000000000000000000000000000000
00000000000000000000000000000000
00000000000000000000000000000000
00000000000000000000000000000000
00000000000000000000000000000000
00000000000000000000000000000000
00000000000000000000000000000000
00000000000000000000000000000000
00000000000000000000000000000000
00000000000000000000000000000000
00000000000000000000000000000000
00000000000000000000000000000000
00000000000000000000000000000000
00000000000000000000000000000000
00000000000000000000000000000000
00000000000000000000000000000000
00000000000000000000000000000000
00000000000000000000000000000000
00000000000000000000000000000000
00000000000000000000000000000000
00000000000000000000000000000000
00000000000000000000000000000000
00000000000000000000000000000000
00000000000000000000000000000000
00000000000000000000000000000000
00000000000000000000000000000000
00000000000000000000000000000000
00000000000000000000000000000000
00000000000000000000000000000000
00000000000000000000000000000000
00000000000000000000000000000000
00000000000000000000000000000000
00000000000000000000000000000000
00000000000000000000000000000000
00000000000000000000000000000000
00000000000000000000000000000000
00000000000000000000000000000000
00000000000000000000000000000000
00000000000000000000000000000000
00000000000000000000000000000000
00000000000000000000000000000000
00000000000000000000000000000000
00000000000000000000000000000000
00000000000000000000000000000000
00000000000000000000000000000000
00000000000000000000000000000000
00000000000000000000000000000000
00000000000000000000000000000000
00000000000000000000000000000000
00000000000000000000000000000000
00000000000000000000000000000000
00000000000000000000000000000000
00000000000000000000000000000000
00000000000000000000000000000000
00000000000000000000000000000000
00000000000000000000000000000000
00000000000000000000000000000000
00000000000000000000000000000000
00000000000000000000000000000000
00000000000000000000000000000000
00000000000000000000000000000000
00000000000000000000000000000000
00000000000000000000000000000000
00000000000000000000000000000000
00000000000000000000000000000000
00000000000000000000000000000000
00000000000000000000000000000000
00000000000000000000000000000000
00000000000000000000000000000000
00000000000000000000000000000000
00000000000000000000000000000000
00000000000000000000000000000000
00000000000000000000000000000000
00000000000000000000000000000000
00000000000000000000000000000000
11110111000000111111110000000001
00000000000000110000000000000000
00000001000001010000000000000111
00000000000000000000000111111101
00000000000000000000001111111111
00001000111111000000010100000000
11110101000000010000000000000000
11110111111111100000011100000100
00000010111111100000000000000000
00000001000000000000000100000000
00000000000000110000100011111111
11111111000000010000000000000100
11111101000001110000010000000110
11111011111110100000000011111111
00000001000000000000000000000010
11111111000000100000000100000000
00001010000000100000000011111110
11111011000000001111110000001000
00000100111111110000000100000011
11111110000000000000001011111111
00000001000000000000001100000000
00000000000000000000000000000010
00000000000000001111110000000000
00000000000000000000001100000010
00000110000000010000000000000011
00000000000001100000101011111010
00000000000001010000010100001001
00000010000000011111111111111110
00000000000000010000000000000101
00000110000000110000000000000000
00000000111111001111101000000000
11111101000000000000100000000010
00000000000001111111111000000000
00000001111111111111111000000010
00000000000000001111101100000000
00000000000000100000000100000000
11111101000000100000000000000001
00000000000000110000000000000001
11111111000000001111111000000000
00000000000000100000011000000100
00000011000000000000010100000000
00000000000000000000010100000101
11111110111110111111101000000001
00000001000000000000010111111111
00000000000000010000000000000100
00000000000001010000000000000001
00000000000000010000001100000000
00000000000010000000000011111010
00000010000000110000000000000000
00000000000000000000000100000000
00000100000000010000000000000101
00000000000000000000000000000000
11111101000000000000000000000001
00000001000000000000001000000011
00000000000000010000000011111111
00000010000000110000001100000011
00000000000000100000001111111111
00000000000001111111111100000000
00000111000000100000000000000011
00000000111111010000001000000000
00000000000000000000000000000000
00000000000001000000001000000000
00000000000000000000000000000101
00000010000001000000001100001100
00000010000000101111110000000010
00000000000000110000000000000000
11111111000001110000000100001000
00000000000000000000001111111111
00000000111111110000000000000000
00000000000000110000001111111111
11111011000000010000000000000000
00000000111111000000010000000000
00000101000000000000000100000010
00000110000000000000001000000111
00000011000010000000001100000111
00000011000000000000000000000011
00000000111111000000000011111111
00000011111111110000000000000000
00001111000000000000000000000010
00000001000000000000000000000000
00000111111111110000000011111111
11111110000000001111111011111100
00000000000010100000000011110110
00000100000000000000100000000011
00000000000000000001000000000000
00000000000000010000000000000000
00000011000000001111110000000000
00000000000000001111110100000001
00000100111111000000000011110101
00000000000000000000110111111101
00000000111110000000000000000010
11111111000000100000000100000101
00000000000000000000000011111100
00000001111111111111101000000000
00000110000000010000000100000000
00000001000000001111011100000100
11111110111110010000011000000000
00001000000000001111111000000100
00000000000000000000000000000011
11111100000000010000000000000000
11111111000010010000000000000000
00000000000000001111111100000001
11111110000001111111101100000000
00000000000000000000001011111100
00000110000000000000100000000000
00000000000000000000000000011001
00000011000000000000101100000010
00000000000000000000000100000001
00000000000010100000000000000100
00001101000011010000000000000000
00000000000000010001001000000000
00000000000000100000010000001000
00000100000001010000000000000000
00000000000000001111101000000000
00000000000010000000000000000001
00000000000000000000000000000001
00000000000001010000000000000110
00000110111110101111111111111101
00000000111111110000000000000000
11111110000010100000000100001101
00000000000000110001100000000000
00000000111101011111100100000000
00000000111111000000000000000001
00000001000010111111011000000011
00000000000000000000000100000011
00000000111111011111111100000000
11111001000000001111111100001010
11111110111111101111101100000010
00001011000000000001000111111111
00000110000000000000000000000000
11111111111110110000001011111101
00000000000000001111111100000011
00000000000000100000001000000001
00000011000000001111110011111111
00000111000000110000000000000100
00001110000011111111111111111110
00000010000000110000001000000001
00000000000000010000000011111111
00000000000000001111110000000001
00000001000000000000000000000000
00001010000000110000000011111111
00001001000001100000000000000100
11111100000000000000000000000000
00000000000000000000001100000000
11111100000000000000000000000111
00000110000000000000000000000010
11111101000000110000001000000111
00000000000000001111111000000011
00000001000000001111101000000000
00000000000000000000000000000001
00000000000000000000010100000000
00000000000000000000000000000001
00000010000000100000000000001000
00000000111111101111101100001011
00000000111100101111111111111011
00000000000000011111111000000001
00000000000000000000000111111001
11111111000000000000001100000000
00000000000001110000100000000000
00000001000000001111000100000111
00000000000000110000001000000000
11111110000001100000001000000100
00000000000000000000010100000010
00000110111111100000000000000000
00000011111111110000000000000011
00000000111111000000011000000010
11111111111111110000000000000000
00000000111111110000010011111111
11111101000000000000000000000000
00000000000000001111110111110101
00000010000010010000011000000001
00000000000000001111111000000001
00000000000000000000001100000011
00000000000000100000000000000000
00000000000000001111100100000000
00000000000000010000000000000100
11111111111111010000000000000000
00000000000000001111110000000000
00001000111111110000000000000001
00000001000000010000000000000010
00000010000000010000000011111101
00000101111111100000011000000000
00000000000000100000000000000000
11111110111110111111111011111010
00000000000000001111100100000101
00000000000000111111111100000000
00000011000010100000000000000001
00000000000000000000100000000010
00000000000000000000000000000000
00000000000000111111111100000000
11111100000000000000000100000000
11111110000000110000000011111010
11111001000000000000100100000000
00000101000000000000000000000000
00000000111111000000000011111101
00000000000000000000000011111110
00000000000000100000001000000000
00000010000000010000000011111111
00001111000010000000000000000000
00000110000001000000011000000001
00000010111111100000000100000000
00000011000000010000000000000000
00000000111111011111101100000010
11111100000000010000000000000010
00000011000000101111111100000011
00000000000001100000000000000000
11111101000000000000000000000000
00000000000000000000000100000000
11111111000001010000000011111111
00000010000000000000000100000010
00000011111111000000011000000000
00000010000000000000000000000000
11111110000000001111101000000000
00000000000000000000000000000001
00000111000000000000011100000000
00000000000000001111111000000010
00000010000000110000000000000011
00000000000000011111111000000101
00000000000001001111111111111011
00000001000001010000001011111111
00000000000000000000000000000001
00000001111110100000001000000000
00000000000001010000010000000000
00000100000000000000001100000010
11111011000000010000000100000000
11111110000000111111101000000100
00000000000000001111111100000000
00000000000000000000000000000000
11111101111111100000000100000001
00000000000000000000001000000101
11111100111111110000000000000000
00000000000000000000000100000011
00000000000000001111111100000000
00000000111111010000001011111011
11111111000001010000010011111111
00000000000000001111111000000000
00000000111111110000000111111011
11111110000000000000000000000000
00000000111111101111110100000000
00000000000000110000000000000001
11111111000001010000000000000000
00000000000000001111111000000000
00000011111111010000000000000001
11111010000000000000000000000000
11111101111111010000000000000000
00000001000001000000001011111111
00000000000000000000000011111111
00000011111111111111111011111101
00000000000000011111110111111101
00000000000000000000011100000000
00000010000001010000000000000010
00000000111111010000001011111110
00000000000000000000000000000000
00000000000000010000000000000000
00000101000000000000011000000010
00000001000010000000000000000001
00001101111111111111110100000001
11111011000000000000000000000000
00000001000000010000000100001100
00000000000000000000000000000000
00000000111111101111100100000000
00000001000000000000000100000001
00000101111111100000000000000011
11111001000001100000001000000000
11111011000001001111111100000000
00000110000000001111111111111110
00000001000000010000010000000000
00000011111111110000000000000101
00000010111111100000000011111110
00000000000000110000000000000000
00000010000000000000000000000000
11111111000000010000000100000011
00000001111111010000000000000000
11111111000000000000100111111111
00000100000000010000000000000000
11111111000000000000001100000010
00000010000000000000011100000000
00000000000000010000000011111111
11111011000000000000000100000000
00000000000000000000001011111100
11111110000000000000000011111111
00000000000000111111111100000110
00000000000001000000001000000011
00000010111110110000001111111111
00000000000000000000000000000001
00000010000001010000010000000000
11111110111110101111111100000000
00000000000000000000001100000000
00000101000000001111110100000000
00000011111110000000011000000111
00000000000000000000000011111111
00000000000000010000000000000000
00001000000000110000001000000000
00000000000010011111111111111110
00000110000000010000001100000000
00000000000000010000000011111010
00000001000000000000001100000000
00000000000000001111111000000011
00000000000000000000000000000001
00000000000000000000000000000001
00000000000001000000000000000100
00000000000000000000000000000000
00000000000000100000000000000000
00000000000000011111111011111011
00000000111111010000000000000000
00000000000000000000010000000000
00000010000000100000000111111111
00000110000000000000000011111111
00000001000001110000000000000001
11111100000000000000000000000000
00000000000000000000000000000011
00000001000000100000001100000010
00000000000000110000001000000101
00000000000000000000001100000000
00000001111111110000000011111101
00000001000000000000000100000010
00000000000000000000000000000000
00000000000001000000000000000000
00000011000000000000000000000001
11111110111111000000000100000010
00000000000000000000000000000000
00000000000000000000000000000000
00000000000000000000000000000000
00000000000000000000000000000000
00000000000000000000000000000000
00000000000000000000000000000000
00000000000000000000000000000000
00000000000000000000000000000000
00000000000000000000000000000000
00000000000000000000000000000000
00000000000000000000000000000000
00000000000000000000000000000000
00000000000000000000000000000000
00000000000000000000000000000000
00000000000000000000000000000000
00000000000000000000000000000000
00000000000000000000000000000000
00000000000000000000000000000000
00000000000000000000000000000000
00000000000000000000000000000000
00000000000000000000000000000000
00000000000000000000000000000000
00000000000000000000000000000000
00000000000000000000000000000000
00000000000000000000000000000000
00000000000000000000000000000000
00000000000000000000000000000000
00000000000000000000000000000000
00000000000000000000000000000000
00000000000000000000000000000000
00000000000000000000000000000000
00000000000000000000000000000000
00000000000000000000000000000000
00000000000000000000000000000000
00000000000000000000000000000000
00000000000000000000000000000000
00000000000000000000000000000000
00000000000000000000000000000000
00000000000000000000000000000000
00000000000000000000000000000000
00000000000000000000000000000000
00000000000000000000000000000000
00000000000000000000000000000000
00000000000000000000000000000000
00000000000000000000000000000000
00000000000000000000000000000000
00000000000000000000000000000000
00000000000000000000000000000000
00000000000000000000000000000000
00000000000000000000000000000000
00000000000000000000000000000000
00000000000000000000000000000000
00000000000000000000000000000000
00000000000000000000000000000000
00000000000000000000000000000000
00000000000000000000000000000000
00000000000000000000000000000000
00000000000000000000000000000000
00000000000000000000000000000000
00000000000000000000000000000000
00000000000000000000000000000000
00000000000000000000000000000000
00000000000000000000000000000000
00000000000000000000000000000000
00000001000000000000000000000000
00000000000000000000000000000000
00000000000000000000000000000011
00000000000000000000000000000000
00000000000000001111111000000000
00000000000000010000000000000000
00000001000000000000000000000000
00000000000000010000000000000000
00000000000000000000000000000000
00000010000000000000000000000000
00000000000000000000000000000001
00000000000000000000000000000001
00000000111111110000000000000000
00000000000000000000000000000000
00000001000000000000000000000000
00000000000000000000000000000000
00000000000000000000000011111111
00000000000000000000000111111111
00000001000000000000000000000000
00000001000000000000000100000000
00000000000000000000001000000000
00000000000000000000000000000000
00000000000000000000000000000000
00000000000000000000000000000000
00000000000000000000000000000000
00000000000000010000000000000000
00000000000000000000000000000000
00000000000000000000000000000000
00000000000000000000000000000000
00000000000000000000000000000000
00000000000000000000000000000000
00000000000000000000000000000000
00000000000000000000000000000000
00000001111111100000000000000010
00000000000000000000000000000000
11111111000000000000000000000000
00000000000000010000000000000000
00000000000000100000000000000000
00000000000000000000000000000000
00000000000000000000000011111110
00000001000000000000000000000000
00000000111111110000000000000010
00000000000000000000000100000000
00000000000000000000000000000000
00000000000000010000000000000000
00000000000000000000000000000000
00000000000000000000000100000000
00000000000000000000000000000000
00000000000000000000000000000000
00000000000000000000000000000000
00000001000000000000000000000000
00000000000000000000000000000000
00000000000000000000000000000000
00000000000000000000000000000000
00000000000000000000000000000000
00000000000000010000000000000001
00000000000000010000000100000000
00000000000000000000000000000000
00000000111111110000000000000000
00000000000000000000000000000000
00000000000000000000000000000000
00000000000000000000000000000000
00000000000000000000000000000001
00000000000000000000000000000000
00000000000000000000000000000000
00000000000000000000000000000000
00000000000000000000000000000000
00000000000000000000000000000000
00000000000000000000000000000000
00000000000000000000000000000000
00000000000000000000000000000000
00000000000000000000000000000000
00000000000000000000000000000000
00000000000000000000000000000000
00000000000000000000000000000000
00000000000000000000000000000000
00000000000000000000000000000000
00000000000000000000000000000000
00000000000000000000000000000000
00000000000000000000000000000000
00000000000000000000000000000000
00000000000000000000000000000000
00000000000000000000000000000000
00000000000000000000000000000000
00000000000000000000000000000000
00000000000000000000000000000000
00000000000000000000000000000000
00000000000000000000000000000000
00000000000000000000000000000000
00000000000000000000000000000000
00000000000000000000000000000000
00000000000000000000000000000000
00000000000000000000000000000000
00000000000000000000000000000000
00000000000000000000000000000000
00000000000000000000000000000000
00000000000000000000000000000000
00000000000000000000000000000000
00000000000000000000000000000000
00000000000000000000000000000000
00000000000000000000000000000000
00000000000000000000000000000000
00000000000000000000000000000000
00000000000000000000000000000000
00000000000000000000000000000000
00000000000000000000000000000000
00000000000000000000000000000000
00000000000000000000000000000000
00000000000000000000000000000000
00000000000000000000000000000000
00000000000000000000000000000000
00000000000000000000000000000000
00000000000000000000000000000000
00000000000000000000000000000000
00000000000000000000000000000000
00000000000000000000000000000000
00000000000000000000000000000000
00000000000000000000000000000000
00000000000000000000000000000000
00000000000000000000000000000000
00000000000000000000000000000000
00000000000000000000000000000000
00000000000000000000000000000000
00000000000000000000000000000000
00000000000000000000000000000000
00000000000000000000000000000000
00000000000000000000000000000000
00000000000000000000000000000000
11110111000010100000100000000000
00000101000000100000000000000000
00000000000010100000010011111110
00000000000000000000001011111011
00000000000000010000010000000000
00000101111111000000010100000000
00000000000001110000000111111101
00000000000000000000010000000101
00000101111111010000001000000000
00000011111111110000010000000110
00000000000010100001000100000010
00000011000001010000000011111010
00000000000010100000010100000011
00000001000000000000000000000001
00000000000000000000000000000001
00000000000000000000000011111111
00000101000000110000000000000001
11111110000000001111110000000011
11111011000000010000011000000101
00000001000000000000000000000001
00000000000000001111111000000000
00000000000000000000000000000000
00000101000000000000010000000000
00000000000000001111101100000100
00000010000000100000000000000110
00000000111110110000100000000110
00000000111110110000001100010011
00000001000001011111111000000000
00000000111111110000000011111100
00000010000010010000001100000000
00000110000000110000001000000000
00000001000000001111101100000010
11111110000001100000000100000000
00000000000000111111111111111101
00000000000000001111111000000010
00000100000000010000000100000000
11111011000000011111111100000001
00000000111110110000000000000010
11111011000000001111101100000000
00000000000000110000010100000000
00000000000000000000010000000000
00000000111111010000011000000001
00000000111111011111110100000000
00000000000000000000100100000000
00000000111111010000000000000101
00000000000000110000000000000000
00000000000000100000011100000000
00000000000000000000010000000010
00000111111111010000000000000000
00000000000000001111101000000000
11111111000000100000001000000011
00000001000000000000000000000010
11111111000000100000000000000000
00000111111111000000000000000101
00000000000000000000000011111110
11111101111111110000001100000100
00000000111111110000000100000000
00000000000001110000000100000000
00000001000010110000000000000011
00000001111111110000010100000000
00000000000000000000000100000001
00000000000000110000001000000000
11111010000000001111111100000000
00000000000000110000001100000010
00011110111111010000001100000000
11111100111111110000000000000000
00000000111111110000011000000010
00000000000000000000000000001011
00000001111111101111110100000010
11111100000001001111111100000010
11111110111101110000000000000100
00000011000001111111100011111111
11111011000010010000001100000001
11111110000000001111111011111101
00000000000001000000000100000000
00001010111111110000000011111101
00000101111110111111111111111010
00001001000001000000000000000001
00000011000000000000000000000000
00000000111111100000000000000010
11111011111110010000000000001011
00000111000000000000011011111111
11111010000011001111101100000000
11111111000000000000000000000111
00000101000000000000011000000000
00000000000000010000000011111111
11111000000000001111111100000001
00000000000000000000011011111101
11111100111111010000000011111011
00000000111111001111101000001001
00000000111101110000001100000000
11111110111110100000000000000101
00000000000000000000000111111100
11111100000010010000001000000000
11111110111111100000001000000000
00000000000000001111010100000000
00001011111110111111111100000000
00000010000000000000111111111111
00000000000000000000101000000000
00000110111111101111111100000000
00001101000000110000000000000000
00000000111111110000001011111110
00001001000000100000011100000000
00000000000000001111110011111100
11111110000000000000000000000000
00000000000010011111101111111110
00000100000001010000010100000011
00000000000000001111111100000010
00000000000000110000000000001001
00000100000000000000000011111111
00000000000001001111110100000000
00000000111110101111111100000001
11111110111110010000000000000000
00000000000000000000011000000010
00000000000001010000000111111100
00001100000000000000000000000000
00001001000011100000000000000000
11111111111111110000000011111111
00000000000000100000000000000100
11111011000000000000001100000000
00000000111111010000000100001010
00000000111111001111110000000000
11111100000000000000000011111011
00000000000010100000001000000110
00000000000000000000000000000001
00000000000000001111111000000000
11111111000000001111101111111101
11111110111101111111111011110111
00010100111111010000000000000000
11111101111111100000000000000000
00000000111111100000001000000100
00000000000000001111111100001110
00000010000000000000000000000001
11111010000001100000000000000100
11110111111110110000000000000000
00000110000000011111101000000000
11111111000001100000001100000000
11111011000000001111111011111110
00000000000000100000000100000000
00000101000000010000000000000010
00000010111111100000000000000000
00000110111111100000000000000000
00000000000000000000000011111111
00000000111111111111110100000010
11111010111111100000000000001100
00000111000000000000010000000011
11111111000010101111101000000001
00000000000000001111111100000010
00000110000000000000010100000000
00000000000000000000000000000000
11111101000000001111110000000001
00000000000000000000100111111111
11111100111111110000000011111101
00000000000000001111101000000000
00000000000000000000000100000000
11111111000000001111111100000100
00000000000000000000000000000010
11111101000001110000000100000000
11111111000000000000000000000000
11111111000000000000000011111001
00001010111110110000000000000000
00000000000000100000110011111101
00000000000000000000100111111111
00000101111111110000000000000000
00001001000000011111111111111101
00000000000000110000000011111101
00001001000000000000110100000000
00000000000000001111100100000010
11111111000000000000000000000000
00000000000010001111111111111010
00000011000000100000001100000001
11111111000000001111111000000000
00000000000000011111111000000011
00000001111111000000000011111111
00000000000000111111101100000000
00000000111110101111111100000010
11111110000001000000000000000000
00000000000000000000101000000010
11111001000000110000000011111101
00000111000000000000000011111111
00001000000100110000000011111111
11111110000001010000000011111111
00000000000000000000000000000011
00000000111111110000001111111110
00000000111111111111111000000101
00000000111111001111110100000000
11111100111111000000000011111110
00000000000001110000000100000011
00000000000000000000000000000001
00000000111111011111111100000000
00000100000000001111110011111001
00000001111111001111111111111001
00000000000000000000000000000000
00000000000000000000000000000000
00000000000000000000000000000000
00000000000000000000000000000000
00000000000000000000000000000000
00000000000000000000000000000000
00000000000000000000000000000000
00000000000000000000000000000000
00000000000000000000000000000000
00000000000000000000000000000000
00000000000000000000000000000000
00000000000000000000000000000000
00000000000000000000000000000000
00000000000000000000000000000000
00000000000000000000000000000000
00000000000000000000000000000000
00000000000000000000000000000000
00000000000000000000000000000000
00000000000000000000000000000000
00000000000000000000000000000000
00000000000000000000000000000000
00000000000000000000000000000000
00000000000000000000000000000000
00000000000000000000000000000000
00000000000000000000000000000000
00000000000000000000000000000000
00000000000000000000000000000000
00000000000000000000000000000000
00000000000000000000000000000000
00000000000000000000000000000000
00000000000000000000000000000000
00000000000000000000000000000000
00000000000000000000000000000000
00000000000000000000000000000000
00000000000000000000000000000000
00000000000000000000000000000000
00000000000000000000000000000000
00000000000000000000000000000000
00000000000000000000000000000000
00000000000000000000000000000000
00000000000000000000000000000000
00000000000000000000000000000000
00000000000000000000000000000000
00000000000000000000000000000000
00000000000000000000000000000000
00000000000000000000000000000000
00000000000000000000000000000000
00000000000000000000000000000000
00000000000000000000000000000000
00000000000000000000000000000000
00000000000000000000000000000000
00000000000000000000000000000000
00000000000000000000000000000000
00000000000000000000000000000000
00000000000000000000000000000000
00000000000000000000000000000000
00000000000000000000000000000000
00000000000000000000000000000000
00000000000000000000000000000000
00000000000000000000000000000000
00000000000000000000000000000000
00000000000000000000000000000000
00000000000000000000000000000000
00000000000000000000000000000000
11111100000000000000010100000000
00000010111111110000000000000000
00000000000000000000000011111111
00000000000000000000000000000010
00000001000000110000010100000000
00000000000000000000000100000001
00000001000001110000000011111101
00000011000000010000010100000011
00000100000000000000000011111111
00000000000000000000000000000000
11111111000000000000010011111111
11111111000000110000000000000101
00000000000010000000001000000111
00000000111111110000000000000000
11111011000000000000000011111111
00000000000000001111110000000000
11111110000001100000000000000011
00000010000000000000000000000111
00000010000000000000000000000100
00000001000000001111111111111111
00000010000000001111101100000000
00000000000000000000000000000000
00000100000000000000000100000000
00000000000000000000000100000001
00000000000000100000000000000100
00000000000000101111111000000000
00000000000001010000000000000100
00000000000001100000000011111111
00000000000000000000000000000010
00000001000000010000000100000000
00000000000000100000000100000000
00000000000000000000010011111001
00000000000000001111111100000000
11111110000000110000000000000000
00000000000000001111111111111111
00000101000000000000000100000000
00000000111111110000000011111101
00000000000000011111111000000000
11111111111111100000010000000000
00000000000000011111110100001001
11111110000000000000000000000000
00000000000000000000001111110111
11111111000000000000000011111111
00000000000000000000000000000000
00000000111111011111110111111100
11111100111111010000000000000000
00000000111111111111101100000000
00000000000000000000000000000000
00000000000010000000000000000000
00000000000000000000000000000000
11111000111111100000000000000000
11111111000000000000000011111111
00000000000010000000000011111111
00000000000010000000000100000000
00000000111111100000000000000000
00000011111111010000000011111101
00000000000000001111100111111110
00000000000000010000001000000000
00000000000000110000000000000011
00000000111111010000010011111110
00000000000000000000000000000000
00000000111111100000000100000000
00000110000000000000001011111010
00000001000001100000000111111111
00000100111111110000100100000000
00000110000000100000000000000000
11111111111111110000010011111000
00000000000000001111111100000111
00000000000001000000110100000000
00000000111111110000000011111111
00000010000001011111111100000001
00000100000000110000001100000010
00000111000000110000000100000001
00000000000000101111110011111110
00000000000001000000010111111111
11111111000000010000000000000110
00000011000001110000000100000100
00000001000000010000000000000000
11111110000000000000000000000000
00000000111111111111111011111111
11111101000000110000000000001001
00001000000000001111111000001001
00000000000010101111101011111101
11111110000000001111111100000011
00000010000000001111101100000000
00000000111111110000000000000100
00000000000000001111111000000000
00000000000000000000001000000011
00000101111111010000000011111001
00000000111111110000001000000100
00000000111101101111111100000100
11111110000000101111111000000011
00000000000000010000000111111100
00000000000000001111101000000000
11111111000000100000000100000000
00000000000000011111001000000000
00000000111110100000000000000000
00000000000011100000000000000000
00000000000000000000000000000010
00001001111111100000000000000000
00000010000000101111111111111111
00000000111110110000001000000011
11111100111111110000000000000000
00000000000000001111101100001011
11111011000000000000010000000000
00000000000001101111111111111100
11111111000001110000100100000000
00000000000000001111111000000001
00000000000000001111111111111101
00000101000001100000000011111111
00000000111110111111110000000000
00000000000000101111111100000000
11111111000010000000000000000000
00000000000000001111100000000000
11111101000000000000000000000001
11111111000000000000000011111111
00000011000010100000000011111111
00001000000001110000010011111101
00000000111111110000000000000000
00000000111111101111110111111111
00000000000000000000001111111110
00000000111101111111101100000000
00000001000001110000000000000100
11111111000000111111110100000000
00000000000000000000000000000000
00000000111110100000000000000000
00000011000000000000001011111101
00000000000000111111101111110111
00000000000000000000000000000000
00000000000000000000000000000000
00000000000000000000000000000000
00000000000000000000000000000000
00000000000000000000000000000000
00000000000000000000000000000000
00000000000000000000000000000000
00000000000000000000000000000000
00000000000000000000000000000000
00000000000000000000000000000000
00000000000000000000000000000000
00000000000000000000000000000000
00000000000000000000000000000000
00000000000000000000000000000000
00000000000000000000000000000000
00000000000000000000000000000000
00000000000000000000000000000000
00000000000000000000000000000000
00000000000000000000000000000000
00000000000000000000000000000000
00000000000000000000000000000000
00000000000000000000000000000000
00000000000000000000000000000000
00000000000000000000000000000000
00000000000000000000000000000000
00000000000000000000000000000000
00000000000000000000000000000000
00000000000000000000000000000000
00000000000000000000000000000000
00000000000000000000000000000000
00000000000000000000000000000000
00000000000000000000000000000000
00000000000000000000000000000000
00000000000000000000000000000000
00000000000000000000000000000000
00000000000000000000000000000000
00000000000000000000000000000000
00000000000000000000000000000000
00000000000000000000000000000000
00000000000000000000000000000000
00000000000000000000000000000000
00000000000000000000000000000000
00000000000000000000000000000000
00000000000000000000000000000000
00000000000000000000000000000000
00000000000000000000000000000000
00000000000000000000000000000000
00000000000000000000000000000000
00000000000000000000000000000000
00000000000000000000000000000000
00000000000000000000000000000000
00000000000000000000000000000000
00000000000000000000000000000000
00000000000000000000000000000000
00000000000000000000000000000000
00000000000000000000000000000000
00000000000000000000000000000000
00000000000000000000000000000000
00000000000000000000000000000000
00000000000000000000000000000000
00000000000000000000000000000000
00000000000000000000000000000000
00000000000000000000000000000000
00000000000000000000000000000000
00000000000000010000000100000000
00000011000000100000000000000000
00000000111111101111111100000011
00000000000000001111111100000111
00000000000000010000010100000000
00000100000000010000001100000010
11110001111111111111111100000101
00000111000000001111101000000000
00000001000000000000001100000000
11111010000000011111110111111101
11111111000000110000001011111011
11111110000001010000000000000110
00000010000000110000000000001000
00000100111110100000000000000000
11111100000000000000000000000010
00000000000000010000010100000000
00000000000000110000000000000110
00000011000000001111101100001011
00000011000000111111111111111111
00000000000000001111111011111110
00000001000000000000000000000000
00000000000000000000000000000100
00000000000000001111011100000000
00000000000000000000110100000000
00000101000000010000000011111110
00000000000010011111110111111001
00000000000000100000000100000001
00000000000010001111110100000001
00000000000001000000000000001000
00000100000000011111100000000000
00000000000000111111111100000000
11111110000000010000011100000101
00000001111111010000001000000000
00000000000001101111111100000000
00000000000000000000010100000000
00000000111111110000000000000000
00000000000000010000000100000011
00000000000000100000100100000001
00000010111111110000001100000000
00000000000000001111111100001000
00000010000000000000010100000000
00000000000001000000001111110111
00000000000001000000000000000000
00000000000000001111111011111110
00000000000000000000001100000010
00000000000001000000000000000000
00000000000000011111100100000000
00000000000010111111111100000001
11111111000010000000000000000000
00000000000000000000101000000000
00001101000000100000000000000001
11111110000000000000000000000000
00000001000000100000000011111101
00000100000000010000010011111110
00000000000001100000000000000000
00000010111111110000010111111100
00000000000000101111100000000000
00000000111110101111101000000000
00000110111110110000000000000010
11111111000000001111110100000001
00000000000000000000000000000000
00000000000000010000000000000001
00000000000000000000000000000001
00000101000001011111111000000011
00000000000000000000000000000000
00000000000000000000000000000000
00000000000000000000000000000000
00000000000000000000000000000000
00000000000000000000000000000000
00000000000000000000000000000000
00000001000000000000000000000000
00000000000000000000000000000000
00000000000000000000000000000000
00000000000000000000000000000000
00000000000000000000000000000000
00000000000000000000000000000000
00000000000000000000000000000000
00000000000000000000000000000000
00000000000000000000000000000000
00000000000000000000000000000000
00000000000000000000000000000000
00000000000000000000000000000000
00000000000000000000000000000000
00000000000000000000000000000000
00000000000000000000000000000000
00000000000000000000000000000000
00000000000000000000000000000000
00000000000000000000000000000000
00000000000000000000000000000000
00000000000000000000000000000000
00000000000000000000000000000000
00000000000000000000000000000000
00000000000000000000000000000000
00000000000000000000000000000000
00000000000000000000000000000000
00000000000000000000000000000000
00000000000000000000000000000000
00000000000000000000000000000000
00000000000000000000000000000000
00000000000000000000000000000000
00000000000000000000000000000000
00000000000000000000000000000000
00000000000000000000000000000000
00000000000000000000000000000000
00000000000000000000000000000000
00000000000000000000000000000000
00000000000000000000000000000000
00000000000000000000000000000000
00000000000000000000000000000000
00000000000000000000000000000000
00000000000000000000000000000000
00000000000000000000000000000000
00000000000000000000000000000000
00000000000000000000000000000000
00000000000000000000000000000000
00000000000000000000000000000000
00000000000000000000000000000000
00000000000000000000000000000000
00000000000000000000000000000000
00000000000000000000000000000000
00000000000000000000000000000000
00000000000000000000000000000000
00000000000000000000000000000000
00000000000000000000000000000000
00000000000000000000000000000000
00000000000000000000000000000000
00000000000000000000000000000000
00000000000000000000000000000000
00000001000000110000100111111111
00000111111111100000000000000000
11111110111111011111110000000000
00000000000000000000000000000110
00000000000000110000001100000000
11111101000001101111101000000000
11110111000001110000001011111111
00011010000000111111110111111100
00001100000000000000001011111111
11111101111111110000010100001000
11111111111111111111011100000110
00000011000000110000000000000101
00000110000000001111111000000101
00001110111111000000000000000110
00000000000000000000000000000000
00000011000000001111111100000000
11111011000000110000000000000111
00000100000000001111100100000000
11111111000001100000001000001000
00001000000000000000000011111110
00000010000000001111111100000010
00000000000000010000000000000000
00001001000000000000000100000000
00000000000000000000000000000011
00000000000001010000000000001100
00000000000000001111110011111000
00000000111101111111101011110111
11111111000011011111110000000011
00000000000000000000000011111111
11111111111111110000000000000000
00001000000100000000110000000000
00000000000000001111101111111111
11111101000000000000101100000000
11111111000001011111111100000000
00000000000000000000100100000000
11111111111111100000000000000000
11111011111111100000000011111111
00000000111111010000000111111110
11111111000000000000010000000000
00000000111111100000001100000001
00000000000000001111111000000000
00000000111111000000000011111011
00000110000001010000100000000000
00000000000000001111111111111111
00000000000000000000000000000000
00000000111111100000000000000000
00000000000000110000001100000000
00000000111111100000011100010001
00000001000010000000000000000000
00000000000000000000000000000000
11111101000000001111111000000000
11111110000000110000000000000100
00000011000001010000000011111100
00000110111111010000001000000000
00000000111111110000000011111111
11111111111111010000000011111110
00000000000000011111101000000000
00000000000000101111100100000000
00000000111111010000000000000101
00000000000001010000001000000001
00000000000000000000000000000011
00000000111111001111111100000000
11111001000000001111110111111011
00000000000001100000000011111000
11111000000000000000000000000000
00000011000000000000000000000000
00000000000000010000000000000000
00000000000000000000000000000000
00000000000000100000011000000000
00000000000000000000001100000000
00000001000010001111111111111110
00000000111111100000011000000011
00000101111111110000000000000000
00000010000000001111111100000000
00000000000000100000010000000000
11111101000000100000000000000111
00000000000001000000000100000111
11111110111111110000000011111111
00000000000000000000000000000000
00000000000000011111110100000000
00000000000001010000000000000000
00000000000000001111111100000100
00000101000000010000000011111101
00000010000000000000000111111111
00000000000000000000000000000000
00000000000000000000000000000001
00000101000000001111111100000000
00000000000000000000000000000001
00000010000000000000000011111100
00000000000000110000001111111110
00000000000001011111111100000100
00000000000001110000000000000000
00000000000000000000000000000010
00000010111111101111110000000000
00000001000000010000000000000000
00000000000000000000001111111100
11111110111111000000000100000000
00000000000001001111110000000001
00000000000000001111110100000000
00000000000000000000000100000000
11111110000000010000000011111101
00000000000000011111111000000001
11111100000000000000000000000000
00000000000000011111110000001000
00000000000000000000001000000000
00000000000000000000001100000010
11111111000000010000010011111111
00000000000000000000000000000000
00000000000000001111111011111011
00000001000000100000000000000000
00000000111111100000000100000000
00000000000000100000000000000000
00000000000011010000000000000000
00000000000000001111111000000000
11111010000000000000000000000001
11111100000000000000000011111111
11111111000001000000000000000001
00000010000001110000000011111110
00000000111111100000000000000000
00000100000000010000000000000001
00000000000000100000001111111011
00000000111110100000000000000000
00000000000000000000000000000011
00000000000000001111110011111110
00000000000000000000000000000000
00000000111110110000000000000000
00000110000000000000001111111111
00000001000001011111111000000000
11111110000000001111111100000000
00000000000000000000000000000000
00000000000000001111111100000011
00000000000000000000000000000000
00000000000000001111111100000000
00000000000000100000000100000000
11111111000000000000000000000000
00000000111111110000000000000000
00000000111111110000000000000000
00000000000000000000000000000000
00000000000000000000000000000000
00000000000000010000000000000001
00000000000000000000000000000001
00000000000000000000000000000000
00000000000000000000000000000000
00000000000000010000000000000000
00000001000000000000000011111111
11111111000000000000000000000000
00000010111111110000001000000000
00000010000000000000000011111111
00000000000000000000000100000000
00000000000000000000000000000000
00000001000000000000000000000000
00000000000000000000000000000000
00000000000000010000000000000000
00000000000000100000000011111111
00000000000001010000000000000000
00000001000000100000000100000000
00000000000000000000000000000011
00000001000000000000000000000000
00000000000000000000000000000000
00000000000000000000011100000000
00000000000000000000000000000000
00000000111111100000000000000000
00000000000000000000000000000000
11111110000000000000000000000000
11111111000000000000000000000000
00000000000000110000000000000000
00000000000000000000000100000000
00000000000000000000000000000000
00000010000000000000000000000000
00000000111111110000001000000000
00000000000000000000000000000000
00000000000000000000000000000000
00000000000000000000000000000000
00000000000000000000000000000000
00000000000000000000000000000000
00000000000000010000000000000000
00000000000000100000000000000000
00000000000000000000001100000000
00000001000000000000000000000000
11111111000000000000000000000000
11111111000000000000000000000000
00000000000000000000000000000000
00000000000000000000000000000000
00000001000000010000001000000000
00000000000000010000000000000000
00000000000000000000000100000000
00000000111111100000000000000000
00000000000000000000000000000000
00000000000000000000000000000000
00000000000000010000000000000000
00000001000000000000000000000001
00000001000000010000000000000011
00000011111110110000001000000000
00000001000000000000000000000000
00000000111111110000011011111100
00000000000000000000000000000001
00000000000000100000011100000000
11111111111111000000000011111111
00000100000000000000000000000001
11111000000000000000101100000100
00000011000000110000001100000001
00000000000000010000000011111110
00000001111111101111101100000001
11111111111111000000000011111111
11111111000000000000000011111111
11111011000000100000000011111111
00000011000000000000000000000001
11111111111111111111111100000000
00000011000000000000000000000011
00000010000000000000000000000100
11111101000000111111110100000000
11111011000000000000000100000110
00000011000000000000000000000000
00000000111111110000000000000010
00000011000000000000000000000000
00000000000000000000001000000100
00000011111111010000000011111110
00000000111111100000100000000100
00000000111111000000011011111010
11111110111110010000000000000010
00000000000000000000000111111101
11111101111111000000001100000000
11111100111110111111110100000000
11111111000000011111011100000000
00000011000001001111110000000000
00000000000001110000000100000000
00000000000000001111110100000001
00000111000000000000000000000000
00000101000000001111111100000000
00000000111110110000000100000101
11111110000000001111111000000000
00000000111111110000001000000111
11111111000000001111111100000000
00000000000010100000000000001000
11111111000000010000001100000100
00000000000000000000000000000010
00000000000000110000000000000010
00001000000001000000000000000000
00000000111111010000001000000000
00000000111111111111110111111010
11111111000000010000000000000000
00000000000000001111101100000000
11111110111111110000000000000001
00000010000000000000000011111111
00000010000001100000000000000100
00000000000001100000001100000000
00000000000000000000000000000001
00000000000000101111101100000010
00000000111111100000111000000000
00000000000000101111111100000000
00000000000010110000000000000001
00000000000000110000011011111111
00000000000000000000000011111111
00000000111111111111111100000000
00000100000000000000001000000010
00000000000000011111111100000000
11110011111111110000011000000000
00000111000000000000000000000000
00000000111111110000001111111001
00000000000000000000000011111110
00000000000000110000011100000000
00000000000000000000001011111111
00000011000000100000000011111111
00000000111110110000011100000101
00000101111111000000101000000000
11111110000000000000000100000001
00000000111111001111011100000100
11111100000000010000000011110101
11111110000000001111111100000000
11111101000000100000000000000000
00000001000000000000000000000101
00000000111111110000001011111110
00000110000001010000000000000001
00000001000000001111110100000011
11111001111111100000011011111111
00000000000000000000000000000001
11111111000000001111111100000000
00000000111111110000000000000001
00010000000000000000001000000000
00000000000000001111111100001000
00000100000000000000000000000000
00000000111111000000100100000001
00000000000000010000011111111000
00000000000000100000000100000010
00000000000000000000000100000000
11111110111101110000001100000000
00000000000000110000000000000000
00000001000000000000001000000110
11111101000001110000000100000000
11111110000010111111101111111011
00000000000000001111111100000011
00000000000000011111111100000000
11111100111111010000000000000010
00000000111110000000011000001011
11111100000000001111111000000000
00000000111111100000011000000110
00000011000000001111110000000000
00000000000000100000011100000111
00000000000000000000001000000001
00000000000000001111111100000000
00000000111111110000001000000000
00000110000001000000000000000001
00000000111111110000010100000000
00000000000000010000000000000000
00000000000001000000000000000000
00000000000000000000000000000000
00000100000000000000000000000011
11111100000000000000000000000000
11111111111110110000000000000101
00000100000000000000000100000000
00000000000000100000000011111101
11111111000000111111111100000001
00000000111111000000100111111100
00000000000000110000010000000000
11111111000010010000000000000011
00000000000000010000010111111110
00000000000000000000000011111111
00000000000000100000000000000000
11111111000000000000001000001001
00000111000001110000000000001000
00000010000000110000001100000000
00000000000000000000000000000000
00000000000001010000000100000101
00000000000000000000000111111101
00000000000000001111111000000000
00000010000000000000000000000000
00000110000010000000000111111110
11111111000001100000101000000010
00000100000000011111111100000000
00001001000000000000010000000101
00000000000001000000100000000101
00000101000000000000000000000010
00000010000000110000001000000000
00000001000000110000000000000000
00000010000000000000000011111111
00000000000000001111110100000000
00000010000000000000000000000000
11111110000000000000000111111110
00000000000000100000001000000101
00000010000000000000010000000010
00000010000000000000001000000000
00000000000000010000000011111111
00000001000000000000011100000000
00000000000000001111101100000000
11111111000000010000000000000110
00000000111111100000010000000110
00000000111110100000000000001000
00000001000000000000000000000000
00000000111111100000000011111011
00000001000001100000011000000000
00000100000000000000010000000000
00000001000000001111100111111101
00000000000000110000000000000000
00000011111111000000000100000101
00000000000000001111111000000000
00000011000000000000000000000000
00000000000000100000000011111110
00000000000000011111101111111111
11111110000000011111111100000000
00000000000000010000001111111100
00000000000000000000001000000000
00000000111111010000000000000100
00000001111111100000001000000000
00000000000000000000010100000000
00000000000000011111111000000010
00000000000000000000000000000000
00000000000000100000011100000000
00000000111111010000001100000001
00000100111111100000000000000000
00000000000000001111100100000000
11111001000000010000000100000001
00000010000000000000000000000001
00000000000010000000000000000000
00000000111111100000000000000011
00000000111111010000000000000000
11111111000000000000000000000100
00000000000000010000001100000001
00000000000001100000001000000000
00000000000001110000000000000001
00000010000000000000010100000000
00000000000000000000000000000001
00000000000000000000000100000000
11111110000000000000000011111110
11111100000000000000001011111111
11111111000010000000010100000000
00000011000000000000000000000000
00000000000000111111111100000100
00000000000000000000000111111111
00000000000000001111100100000000
11111111000011010000001000000001
11111111000001000000000111111111
00010000000000001111101000000000
00000010111111010000011000000000
00000001111111100000010100001001
00000000000001001111111100001001
00000110000001110000000011111011
00000100111110111111111000000000
00001010000000100000000000000011
00000100000000000000000000000010
00000011000000010000001000000000
00000000000000010000000011111111
00000001000000000000000011111001
11111101000000000000110111111111
00001110000000000000000011111111
11111110000000000000011000000000
00000000000000010000000111111101
00001001000000000000011000000000
00000000000000001111110000000000
11111101000000110000000000000001
00000000111111111111111100000001
00000000000000010000000011111111
00000001000011010000001000000010
00000000111111111111111100000000
00000000000000010000001100000000
00001011000011000000110000000000
00000111111111110000011100000101
11111101111111100000101100000000
00000010111111000000000000000000
00000000000000000000011100000001
11111010000000010000000000000000
11111100000000010000000000000010
00000000000000000000001000000000
00000010000000100000010000000000
00000000111111110000001011110111
00001001000000000000000000000000
00000000111110100000010100000100
00000111000000100000011011111111
00000000000000000000000000000000
00000001000000000000001000000101
00000000000000000000000000000000
00000000000010000000100100000000
00000000111111110000100000010010
00000100000000100000000000000000
00000000000000000000011100000000
00000011000001100000000000000000
00000000000000010000000000000101
00000000111111010000000000000000
00000011111110001111110000000000
00000000000000010000000011111110
11111101000000110000100000000011
00000000000000011111111100000001
00000000111111100000001000000001
11111110111110100000000000000000
00000001000000111111111000000010
00000000000000000000000100000011
