11110110000001010000010111111011
00000000111110100000010111111010
11110110000000001111101011111110
00000001000011100000100000000100
00001101111110001111101011110110
00000000111110101111111000001010
11110101000010101111101111110111
11111001111110100000001011111000
00001010111110110000000111111010
11111010111111001111010011111011
11110110111110111111101011110111
11110100111111111111111000000001
11110100000010011111010111110101
00001011000010010000011011111010
11110001111110001111111000010000
11111111000001110000001111110110
11110110111111101111100011111010
11111010000100000000001100000000
00000101111100100000100011111111
11111010000010000000101000001110
11111001000010011111011100001000
11111001111101001111110000001110
00001001000000000000001111111110
11110110111101011111100011111110
00000100111110011111111011111011
11111011000001001111110011111110
11110101000001111111101011111100
11111101111110011111011000000000
11110101111111101111100100001000
11111101000001010000100011110111
11110100000000100000010100000111
11111011000000001111101011111010
11110111000000101111110100010000
11111010000011110000101011111000
00001000111110100000100100001000
11111100111101010000000000000000
11111011000011110000010011111100
11110011000000110000100011110111
11110011000010000000110100001001
00000001111110101111010111111011
00000101000011010000110000001011
00000001000001001111110100001001
00001010000011001111011100010000
11111101000010110000101100000000
00001011000001100000101100001000
11111011111110001111000000000000
11110111111101110000101111111011
11111000000010100000011111111110
11111011111110001111100011110111
11111100000010000000100000000101
00000101111101110000011111111101
00001011000001111111110111110110
00001011111110000000101111111101
11111010000000001111100111111001
11111100111111101111110100000000
11111100111111000000000000000010
11110101000011010000000111111100
00001010111101101111011100001000
11111111000001011111110100000011
11111101000000010000000011110111
00000011000000101111101111110111
00001001000010100000011011111111
00000111000001100000011100000000
00000010111101100000101100000010
00001011111100001111011000001010
00001001111111101111101100001101
00000101111111001111011100001110
00001100111111101111111111111110
11111100000011100000100111110100
11110110000000000000101111111011
00001001111101101111001100001001
00001000111110100000111000001101
11111101000010100000001100001111
00000010111111100000011100000000
11110011111101011111111000001100
11110011111111100000001000001001
11110101111110111111101000001000
11111101000000111111100000010001
00001001000010011111111011111100
11111101000000111111111000001100
11111001111110001111110100000000
11111101000010111111101111111010
11111000000001101111110000000001
11111001111111111111100000000101
00010100000001110000110011110100
00000100111110001111111111111010
11111101111110000000000000000000
11111010000000110000011000001100
11111101000000010000001100001010
11111011000010001111110000000011
00000010111101110000111100000011
00000000111110000000111011111001
11111111000010010000101011110111
11111101111111000000010000000111
11110010111111101111111100001011
11111101111101110000000111111010
11110110000011010000100011111001
00001011000000001111101100001011
00000111000000000000101011111000
00000010111101111111101100000000
11111110000000100000110011111001
00000110111111011111100100000101
11111110000011001111010111111111
11111011000010101111011100010011
11111000111101011111011111111001
11110101111111001111101000000100
11111101111111011111111100000000
11111100111111101111001100001001
00000110000001111111111111110111
00001011000001010000110111111110
11111101111101110000101000000101
11111111111110011111111000000000
11111000111110111111010000001000
00001011000000011111101111111010
00001101111110100000000111111100
00000111111111100000001111111110
00000101111110000000010100000100
11111001000000011111011111110011
11111101111110010000000000001100
11111011000000100000110000000010
00001001000010010000001111111010
11111111111110111111100011110010
11111001111101110000011000000110
00000111000011101111101100001101
00000111111110110000111111110111
00000001000010001111101111111111
11111011111110101111011011111110
11111100000010100000000111110010
00000000111011101110111111111101
00000010111111111111001111111010
00000000000011010000100011111111
00000010000011101111111000000010
00000011000100001111100100001100
11111111000011100001010111110111
00001110111111111111001000001011
00010001111101111111100111111001
11111110111110110001000111110011
11111000111111100000000100000010
11111101111111101111011011111010
11111100111110001111110011110111
11111110000010000000110100001000
11111001111101111111011100000110
11111011000001011111001111110101
11111111000000101111010011111101
11111111000001011111110100001010
00001100111100110000110011111011
00000101000000111111001111111001
11111010111101101111111011111001
11111111111101001111010011111100
11111010111110001111100100001001
00000001000000000000101011111110
11110011000000110000100011111110
11110000000000110000000000000000
11110100111101110000101000000101
00001011111110111111011100000100
00001010000011001111110000001010
00001001111110010000000000001101
11111110000010000000100011110101
00001001111110010000100000000101
00000000111110101111101111111110
00001011000011100000010000001100
00001011111101110000011111110000
00000111000001001111001100000111
11111011111100111111100100001011
00000111111111011111010100001011
11111001000000101111111000001011
00001010000001100000100000000111
11111011000001010000110011110111
11110111111110000000101011110110
11110111000011010000001011110100
11110100000010111111101011111110
00000101000001101111111100000011
00000011000011000000101100000010
00001000000000011111110100000011
00001000000000000000100111111011
11111110111110111111111011111010
00001000111111001111100100001001
11110110000000100000110000001010
00001100111111110000100100000111
00000101000011101111100011111110
00001011000010111111011100000010
00000011000000010000010011111110
00001100000001011111110111111001
00000110000000111111100000001011
00001101111100101111101000000001
00000111111111101111011011111000
11111011000010000000001000000101
11110001000011010000101111111101
00000011111101101111100111111010
00000111111110101111101100000101
00001001000001101111100100001010
11110110000000001111110000001001
11111111111101101111110100001101
11110110000011100000101111111000
00000001111111101111101100000000
11111001111111101111100000000111
11110110000001110000011000000111
00001010000000000000100011111111
11111000000000100000010100000110
11111100111111001111110011111010
11111011111111111111101100000000
00000000111111010000100111111001
11110110000010110000010011111101
00001100111111100000101111111000
00000111000001110000001011110010
11111101000000101111011011111000
00000101111110001111011100001001
11111001000001000000000100001101
11111110000001010000000011111010
11111100111111000000000011111010
00001010000000011111100011110110
00000110000000000000000011110100
11111001000000001111100000000011
11111111000000010000000111111010
00000000111110101111101011111111
00001011111111000000010100000011
11110110111111111111101100000001
00001000111101000000101111111111
00000111111100101111011111111110
00001010000011000000010100001111
11111000000010101111000000000011
11111101000010010000001011111000
00000100000001001111111111110101
00001001000010100000000100001100
00001101111101101111110100000011
00000001111101001111001000000101
11110100111110001111010111111010
00000001000011100000101100001101
00001001111110001111011011111101
00000011000000011111100100001000
11111110111110110000000000000000
00001011000010111111111000001100
11111001000000000000010111111001
11111001111111110000001000000101
00000100111110110000101011111100
00000111000011011111110100001000
00000110000010111111010111111111
11111111000010100000110000000111
00001000000010011111001100001000
11110110111111101111010000001011
00010000000001101111110000001100
00001101111110101111100100000100
11110110000010001111011100001101
11111101111111100000111011110100
00000001000001000000100100010000
11111001000000101111001000001101
11111001000000001111100011111100
00000001111110001111100100000110
11111010111110100000000111111111
00000110000011110000100000000000
00001111111110110000010111111110
00001011111110001111111011111111
11110111000000001111010111110111
11111001111110000000000011111100
00000101000010011111100100000001
00000110111101001111101011111001
00000110000001111111111011111110
00001100111110001111100100001101
00001000000001100000000000001010
11110110111101011111110111110100
00001000111110010000100111110110
11111001111110001111101000000100
00000000111110100000100100000000
00000000111110101111010100001011
00001011111111101111101000000001
00000110111111100000100111110011
00001110111110101111110000001100
00000100111111110000011000000110
00001001111100011111010000001100
11111101111101100000011111111100
00000101111111000000000011110111
00001111000001100000000100000001
00001111000000100000110000001110
00000000111101100000010011111011
11110000000010101111110100001100
00000111111111101111011111111101
11111000111111011111111000000110
00000000000010111111111111110111
00000100000010010000110100000001
00001010000010011111100000000110
00000000111101100000010100001110
00001101000010011111100100001000
00001100000000100000101000001110
11111010111101011111011100000000
00000111111111110000111100001011
00001011111101011111100000001011
00001001000000000000010100001100
00000010111100010000011011111101
11110010000000000000110011111100
11110111111110000000010011111100
11111011000001011111010000000111
00001001000010010000000011110111
11110011111111110000010111111110
00000100111111101111100111110001
00000110111111101111011100000000
11110001111111000000011111110101
11111100111101000000010000000011
00001001000001001111110011111010
11111000000000111111011100000000
11111101111110001111011011111110
11111010111110100000011000000001
00000000000000001111100000000011
11110101111101001111101011111100
00001110111111101111110011111000
11111000111111110000100000000001
11111001111101100000110011110110
11111001111111000000100011111010
11111001111111001111011000001101
11110111111110101111010011111010
00001001000000001111111100000000
11111001000010010000111000001011
00000110000001111111101011111000
00000011111101100000010000001111
11111110111100001111110000001001
11111010000010001111110011111110
11110001111110010000000000001001
00000110111101000000010000000000
11111001111111000000000000001010
11111111111101101111010000000110
00000000000010001111001000000111
00000000000010100000011111111110
11111010000011100000011011111111
00000001111110001111100011111110
11111011111110101111110100000010
11111101111110111111100100000110
11111101000001011111011011111100
11111110111110010000100000000000
00000001000011110000111111111000
11111100111111001111110100000000
00001011000010101111010000001110
00000100000010111111101011110100
00000110000001100000000000000000
00001010111100011111110111111101
11111111000001000000110000000110
00000110000000000000101000000110
11110100111110110000111011111001
11111011000011011111101111111011
11111010000000110000001100000000
00001000000001110000101011111010
00001001000001100000001000000101
00000100111101100001001100001011
00001000111111001111101011111100
11110010000001001111111111111010
00001010111111101111011111111011
00001101111101000000000011110111
00000000000000001111100000000000
00000010000001101111011011111010
11110110000001010000110000000000
11111111000001000000011011111100
11111111000001111111000111111010
00001011000000001111000111111101
11111111000011000000000100001000
00000011111111101111011111111100
11111011111111101111100000001010
11111100000000011111101111110011
11111100000011001111111111110101
00001011111111110000000011111110
00001001111111101111110111110110
00000101111111111111111111111111
00001100111111101111010000001100
00001011000011111111110111111000
00000011111110011111110011110100
00001110111110000000110011111010
11110111111101100000110011111110
11110111111111001111110111111001
11110110111110110000101011110111
11111011000100101111100011111101
00000110111111010000011111111101
11111111111110110000001111110110
00001011000001111111110100000111
11111011000010111111110011111100
11110110111110100000010011110111
11110111111101010000100011111100
00000101000000010000101000000111
00001001000010001111110100000000
11111111111110110000000011111000
11111010000000011111100011110101
11111001000000100000111000000010
00001000111110001111110011110110
00001110111110100000011011111011
11111111000000101111100100001100
00000011000010010000011100000000
11111001111101110000100111111010
00001000000001000000011111111010
11111001000001110000110011111011
11111011111111010000101000000011
00010000111111101111011111111011
11111100111111000000011011111010
00001001111110011111000100000010
11111000000001110000011000000011
00001011111101111111111100000010
11111110000001000000000011111101
00001111000001110000101111111011
11111010111111001111101000001111
11110110000010111111110011111010
11110100000001101111101100000000
11110010111111010000100000001011
00001011111111110000110000000111
00001001111111110000110000001010
11111100111110110000110111110010
11111111111110011111100011111110
11111101000010011111101000010010
11110100111101010000110111111100
11110011000010111111011000000111
11111111000010010000011000000100
11111000111111001111110000000111
00000110111110101111101011111111
11110010000000000000001011111001
00001110111101010001011100000000
11110101000010010000000111111011
11110111111110001111011111111001
11110011000010010000000000000001
11111001111111000000000011111000
11110111000000011111110111111111
11110101000000001111100100000000
00000001000001011111110000000000
00000110111111101111010000000000
00000111000000011111110011111001
11111100111111000000100011111110
00001001111101011111111111110111
11111001000011010000001111111011
11111000111111010000101011111011
11111101000000000000000011111010
00001011000000011111010011111110
00001001000001000000011100001101
00001101111111100000000000000011
00001010000010000000000111111101
11110111111011111111110011110110
00000000111101001111110100001011
11111011111111001111110111110111
00001001111101110000100011111101
11111100111111010000001000000100
11111101111111001111010111111011
11111111111110100000010000000100
11111000000001001111101011111011
11111110111111111111010111111000
00000000111100101111101111110100
00001110000000010000101011110111
00000111000010111111111100001010
11111111111110001111101111111111
11111000111101001111100100000101
11111001111111111111110000001001
11110100111011111111111111111111
11111101111111101111011011110011
00000011111101010000111000001010
00001010000001100000010000001101
11110011111110010000100111110001
00001010000011010000000000000110
00000011111100111111100000000110
11111010111110101111011011111000
11111001000010110000100111111000
00001011000010011111100100001101
11110001000011011111111000000000
11111011000001011111100111111110
11111101111110101111001100001001
11111110111101000000000000000000
11110000111110101111100000001010
11111001000001100000011111110011
11111001111111100000100100001110
00000010000011101111111000000011
00001000000000011111111111111011
11111101000000000000000011111100
11110111000010111111011000000000
00001010111110001111011100001010
00001101111111010001000000000000
00010000111101110000001011111011
00000111000001001111011100000100
00001001111101010000010100001100
00000001111111011111010111110110
00001011000010110000110111110111
11110101111110100000110000001100
11111101000010100000011111111010
11110000000010001111100100000101
11111100111100000000000000000000
00001000000000100000101011111010
00001000000001101111110011111100
00001001111110100000000011110110
00001101111111000000011100001010
11111100000001001111110111110100
00001000111101011111110000001000
11111001000010011111111111111001
11111110000000000000101000000000
00001101000010111111100111111011
11111011111111010000100000001010
11111111000000000000100100001110
00001001000000011111110000001011
11111101111110111111010111110010
11111110111111100000001011111101
11111000000001101111110111111101
11101111000011101111110000000110
11111000111110101111101111111100
00000100000001110000110011111111
00000100000001111111001011110100
11111111000100001111000000001110
00000001000000001111010100001111
00010000111110000000101111111010
00000000111111100000010000001011
11111110111111101111100111110010
00000000111111001111111100000110
11111100000010010000010000001011
11110101000011001111010000001000
00000101000001001111100100001000
11111000000000001111101011110100
00000111111111100000010100001010
00001111000010001111011100001100
11111010000000000000010111111111
00001010000001001111101100000000
00000111000010100000101100001000
11101111000011001111100111111001
11110000111111010000111000001000
11111001111110110000100111111011
11111100111110100001001011110011
00000111000010010000011011111100
11110110111111100000100011111010
11111101111110110000001100000001
11111000111110100000100011111011
11111010111111100000011100001001
00001001111110001111101011111101
11111101000010100000101011110011
11111100000001101111111111111110
11111011000010101111100111111101
11110110000010001111011100001011
00001110000000000000000011110111
11111101111111111111101000001010
11110111000010100000100000000011
00000001000001100000010111111001
00001000111110010000010000000100
00000100111111011111110111110110
11111110111101011111101011111001
11111101000010111111011111111100
00000100111100110000110000001011
11111100111101100000001111111010
11111101111111101111101100000001
00000100000010011111101100001100
00000000111110101111100111111010
00000000111111110000011011111011
00000111000010011111101111111011
00000000000010110000010111111111
11111111000000011111101000000100
00001000000000011111101000000011
11111110111111011111110011111100
11110111000010000000010111111100
11110111000001110000110011111010
00000111000010010000010000001011
00001000111110010000001011111110
11111100000011011111010100001001
00000000111111010000001000000100
00000001000010111111110000001000
11111101111101100000000011110111
11111010111111010000110100000111
00000001111100100000100100001000
11111100111111010000110111111010
11111101000000101111011011111000
00001100111110100000011100000000
00000111111110100000110011111110
11110111111110111111100000000000
11110101111111100000010011111011
00001011111110010000010100000001
00001001000100110000011100000000
11111001000011011111000000000001
00000011000011000000101011111011
11111000000010001111101000000110
11111001000010111111001111110100
00000111111111000000001100001011
00001000000011010000101111111100
00000010000000000000011011111001
00000111111111010000000000000001
11111101000010001111110011111001
11110100111110100000100000000001
11111100000011100000011111110100
11111001000001101111110000000000
00000010111110100000101100001000
00000111000000000000011100001011
00001001111111111111101111111111
00001000000001100000001000001000
11111000000001011111000100000101
11111001000011001111110011111101
00001100000000110000100100000111
11110101000001010000110011111111
00000000111101111111010100001010
00000110111101010000011111111111
00001010111110101111100111111101
11111100000011000000101011111001
11110110000011001111111000001001
00001010000000000000010011111110
00000111111111100000011011110111
00001110111110010000111000000111
00001010111100111111111111111000
00001001111111101111101111111001
11111110000001111111100111111110
11110011111110111111110111110101
00001110111110110000010000000101
00001100000100000000110111111011
00000111111110100000000000000000
00000011000001111111111100000011
00001001000000110000101111110101
11111110000000011111101111111010
11111111000010110001000111111100
00000101000011001111010000001110
00001001111100011111011000000001
00001101000001001111100111111100
00001001111111001111111011111100
11110000000010010000101100001011
11111001111100100000001111111100
11111011000000001111110000000011
00001001111100111111010100000110
00001010111111110000011111111011
11111100000001101111110011110111
11111001111110000000100111111101
11111000111111010000001100000110
11110100111110010000011100001001
00000000000001000000101000000010
11111111111111101111011111111000
00000101000000111111101111110011
11110100111110110000001111111010
11111000111100110000101011111101
00001001111101001111110000000011
00001011111110110000100000000000
11110111111111111111110000000011
00001001000000110000001100001001
11111010111110000000010100001110
11111111000000010000010100001000
11110110111110111111110011111111
11111101000100000000001111111000
11111001000011010000101111110101
00000001111110110000000111110001
00000000000000100000000111111111
11111001111110000000100100000101
11111010000000000000000011111110
11101110111111110000000000001011
00000000111100000001000011111110
11111101000010010000000111110111
11111011000010000000100000001000
00000110111110110000100000001011
00000001000001100000000000001110
11111100000000011111011100000000
11111101000010101111110100000001
11110111111110101111110111101111
00000010000010001111101000001001
00001000111111010000001000000010
